const unsigned char model[] = {
  0x20, 0x00, 0x00, 0x00, 0x54, 0x46, 0x4c, 0x33, 0x00, 0x00, 0x00, 0x00,
  0x00, 0x00, 0x12, 0x00, 0x1c, 0x00, 0x04, 0x00, 0x08, 0x00, 0x0c, 0x00,
  0x10, 0x00, 0x14, 0x00, 0x00, 0x00, 0x18, 0x00, 0x12, 0x00, 0x00, 0x00,
  0x03, 0x00, 0x00, 0x00, 0x84, 0x24, 0x00, 0x00, 0x90, 0x1c, 0x00, 0x00,
  0x78, 0x1c, 0x00, 0x00, 0x3c, 0x00, 0x00, 0x00, 0x04, 0x00, 0x00, 0x00,
  0x01, 0x00, 0x00, 0x00, 0x0c, 0x00, 0x00, 0x00, 0x08, 0x00, 0x0c, 0x00,
  0x04, 0x00, 0x08, 0x00, 0x08, 0x00, 0x00, 0x00, 0x08, 0x00, 0x00, 0x00,
  0x0c, 0x00, 0x00, 0x00, 0x13, 0x00, 0x00, 0x00, 0x6d, 0x69, 0x6e, 0x5f,
  0x72, 0x75, 0x6e, 0x74, 0x69, 0x6d, 0x65, 0x5f, 0x76, 0x65, 0x72, 0x73,
  0x69, 0x6f, 0x6e, 0x00, 0x0d, 0x00, 0x00, 0x00, 0x30, 0x1c, 0x00, 0x00,
  0x18, 0x1c, 0x00, 0x00, 0xe8, 0x1b, 0x00, 0x00, 0x9c, 0x1b, 0x00, 0x00,
  0xc4, 0x1a, 0x00, 0x00, 0xbc, 0x1a, 0x00, 0x00, 0xbc, 0x17, 0x00, 0x00,
  0xb4, 0x17, 0x00, 0x00, 0xac, 0x17, 0x00, 0x00, 0x2c, 0x00, 0x00, 0x00,
  0x24, 0x00, 0x00, 0x00, 0x1c, 0x00, 0x00, 0x00, 0x04, 0x00, 0x00, 0x00,
  0x6a, 0xe3, 0xff, 0xff, 0x04, 0x00, 0x00, 0x00, 0x05, 0x00, 0x00, 0x00,
  0x31, 0x2e, 0x35, 0x2e, 0x30, 0x00, 0x00, 0x00, 0x4c, 0xe3, 0xff, 0xff,
  0x50, 0xe3, 0xff, 0xff, 0x86, 0xe3, 0xff, 0xff, 0x04, 0x00, 0x00, 0x00,
  0x70, 0x17, 0x00, 0x00, 0x4a, 0xfa, 0x09, 0xff, 0x30, 0x19, 0xd6, 0xa5,
  0x0c, 0x16, 0x32, 0xe4, 0xeb, 0xac, 0x03, 0x3c, 0xc7, 0xe7, 0xeb, 0xbc,
  0xeb, 0xd4, 0xe1, 0x4a, 0xd7, 0xdf, 0xeb, 0x04, 0x2f, 0x0c, 0xe8, 0xdb,
  0x26, 0xd9, 0xdf, 0x2a, 0x12, 0x31, 0x0a, 0x04, 0x28, 0x00, 0x18, 0x33,
  0x08, 0x0f, 0xd4, 0xf7, 0xf4, 0xe3, 0x50, 0xe6, 0xd1, 0x3f, 0x09, 0xfc,
  0x12, 0x34, 0x1a, 0x09, 0xd7, 0x30, 0x17, 0x26, 0xd5, 0x18, 0xc6, 0xe6,
  0x04, 0xef, 0x13, 0xdc, 0xf0, 0xfd, 0x06, 0x2e, 0x3b, 0x09, 0x17, 0x06,
  0x20, 0x0f, 0x30, 0x3e, 0x0d, 0x0b, 0x23, 0x07, 0xf3, 0xf9, 0x4e, 0x07,
  0xc5, 0x1c, 0x0f, 0x03, 0x30, 0xec, 0xf0, 0x28, 0x01, 0xfa, 0x17, 0x1a,
  0xe5, 0xe7, 0x05, 0xf4, 0x0e, 0xeb, 0xfc, 0x0a, 0xe2, 0xf4, 0xeb, 0x1c,
  0x08, 0x11, 0x2b, 0xf5, 0xcd, 0xcf, 0x23, 0x0f, 0x00, 0xf9, 0xd7, 0xf6,
  0x56, 0xb3, 0xf2, 0xf4, 0x25, 0xdf, 0x00, 0x1d, 0xd1, 0x31, 0xe3, 0x1d,
  0x08, 0xe3, 0x1e, 0x0c, 0xfa, 0x41, 0x31, 0xc7, 0x24, 0x19, 0x0d, 0xb2,
  0x16, 0xd6, 0xff, 0x09, 0xf6, 0x03, 0xe4, 0x0b, 0x25, 0xee, 0xea, 0xde,
  0x22, 0xc1, 0xfe, 0xf8, 0xe3, 0x07, 0x20, 0xce, 0x1f, 0xf6, 0xc7, 0x15,
  0x29, 0x0c, 0x14, 0xfe, 0x10, 0x04, 0xff, 0x17, 0x27, 0x0c, 0x0e, 0x02,
  0x07, 0x07, 0x03, 0xc3, 0xfb, 0x35, 0x08, 0xd9, 0xdd, 0x09, 0xcb, 0x21,
  0xe4, 0xe0, 0x06, 0xfb, 0x1d, 0x07, 0x16, 0x4d, 0x1f, 0xbe, 0x39, 0xe6,
  0x2b, 0xcd, 0xbc, 0xfc, 0xea, 0x09, 0xee, 0x19, 0xf1, 0xe1, 0xbb, 0xcd,
  0xec, 0xca, 0x0b, 0xcd, 0xe9, 0xd7, 0xff, 0xf2, 0xe7, 0x14, 0x18, 0xe0,
  0x06, 0x37, 0x4b, 0xfb, 0x37, 0xa2, 0x15, 0x08, 0x0c, 0x13, 0xd4, 0x39,
  0xed, 0xd8, 0xfd, 0x1b, 0xb8, 0xfd, 0x0e, 0x09, 0x1d, 0xf8, 0xd4, 0x14,
  0xe6, 0xff, 0xf0, 0xd1, 0xb9, 0xd9, 0x31, 0xf1, 0x00, 0x1a, 0xff, 0x38,
  0x43, 0x23, 0xea, 0x14, 0x00, 0x34, 0x3e, 0x1d, 0xf1, 0x0a, 0x00, 0x16,
  0xfc, 0xd5, 0x07, 0x16, 0xfc, 0xf3, 0x3a, 0xd1, 0x2d, 0xe7, 0x0e, 0x41,
  0x40, 0xfa, 0xb5, 0x28, 0x1b, 0xf2, 0xf5, 0xda, 0x13, 0xd7, 0xeb, 0x3f,
  0x42, 0xe3, 0xf5, 0x31, 0xef, 0x62, 0xf6, 0x03, 0x0a, 0x28, 0x24, 0x48,
  0x07, 0x10, 0x26, 0x10, 0x0b, 0x3b, 0x18, 0x13, 0x27, 0xfd, 0x08, 0x07,
  0xfb, 0xda, 0xd4, 0xea, 0x03, 0x01, 0xd5, 0xec, 0xf2, 0x2d, 0x39, 0x3d,
  0x2e, 0x0a, 0x48, 0xf8, 0x18, 0x3c, 0x1b, 0x02, 0xee, 0x27, 0xf3, 0x22,
  0x10, 0xf4, 0xfe, 0xbd, 0x1d, 0xe6, 0x17, 0x04, 0x19, 0xe8, 0x0b, 0xd1,
  0x15, 0x09, 0x37, 0xf0, 0xee, 0xc9, 0xf4, 0xd0, 0x18, 0x46, 0x37, 0x0a,
  0xd5, 0x01, 0x2d, 0xec, 0xff, 0xcb, 0x3e, 0x42, 0x11, 0x11, 0x35, 0x15,
  0xf5, 0x06, 0xff, 0x06, 0xff, 0x0b, 0xee, 0xe8, 0x0b, 0x04, 0x1b, 0xe8,
  0xf7, 0xd3, 0xe0, 0xb8, 0xf3, 0xe9, 0xf4, 0xf4, 0x00, 0x26, 0xb7, 0xf7,
  0x14, 0xfd, 0x33, 0x23, 0x11, 0xc0, 0xe7, 0xfd, 0x2d, 0xef, 0xe7, 0x2d,
  0x0a, 0x22, 0xf4, 0xd4, 0x2f, 0xc9, 0x25, 0xb8, 0xf6, 0xee, 0xc4, 0xe6,
  0x1b, 0xf2, 0xc7, 0x20, 0xd9, 0xf8, 0xf4, 0x09, 0x1f, 0xe6, 0xea, 0xd0,
  0x00, 0xf6, 0xba, 0x24, 0x1e, 0x07, 0x07, 0x26, 0xc5, 0x2a, 0x30, 0x1b,
  0xb8, 0xde, 0xfc, 0x32, 0x24, 0x08, 0xbe, 0xb8, 0xbe, 0x3c, 0xdb, 0xea,
  0x4e, 0xfb, 0xed, 0xce, 0x02, 0x00, 0x51, 0xee, 0xb3, 0x20, 0xeb, 0x48,
  0x3a, 0xc7, 0xc7, 0xf9, 0x1a, 0x1f, 0x23, 0xcb, 0xdc, 0x2a, 0x35, 0x32,
  0x3c, 0x07, 0xec, 0xe6, 0xee, 0x21, 0xf0, 0x45, 0xc8, 0xcf, 0xf0, 0xfe,
  0xf2, 0x24, 0x3e, 0xd8, 0x37, 0x00, 0xf8, 0xd1, 0x15, 0x27, 0x07, 0xb4,
  0x0d, 0xef, 0x14, 0x48, 0x1e, 0xe7, 0xf3, 0x35, 0xe1, 0xe2, 0x0c, 0xe2,
  0x02, 0x24, 0xde, 0x3b, 0x24, 0x20, 0xc8, 0xf2, 0xf4, 0x46, 0x52, 0x00,
  0xc3, 0x49, 0x09, 0x1b, 0x21, 0x12, 0xbb, 0x06, 0xef, 0x39, 0x18, 0xee,
  0xeb, 0x28, 0x21, 0xee, 0xe6, 0xdc, 0x1b, 0x21, 0x09, 0x02, 0xfe, 0x1f,
  0xff, 0xf0, 0xed, 0xff, 0x05, 0x2e, 0x11, 0x16, 0x0e, 0x20, 0x29, 0xe1,
  0xf6, 0x0e, 0xb7, 0xd1, 0x3e, 0x25, 0x34, 0xf2, 0x3f, 0xff, 0xea, 0xe2,
  0x25, 0x30, 0x1b, 0x1f, 0x0d, 0x24, 0xcf, 0xff, 0x1d, 0x00, 0xd3, 0x0d,
  0xe5, 0x35, 0xef, 0xc0, 0xf3, 0xe4, 0xe3, 0x1c, 0x17, 0xf0, 0x1e, 0xdf,
  0xd1, 0xfa, 0x02, 0xf5, 0xce, 0xfb, 0x08, 0xeb, 0x2c, 0xe9, 0xdf, 0xf8,
  0x14, 0x0d, 0xd7, 0xcf, 0xf1, 0xf0, 0xfd, 0xb3, 0x23, 0x16, 0xe2, 0x50,
  0xef, 0x12, 0x19, 0x1c, 0x22, 0x3d, 0x0d, 0x1e, 0xd7, 0x4a, 0x2c, 0x11,
  0xd0, 0xc5, 0xfc, 0x29, 0x05, 0xfa, 0xbd, 0xe4, 0xb3, 0xf5, 0xf1, 0x21,
  0x44, 0x0b, 0xb6, 0x1a, 0x1e, 0xcf, 0x3b, 0x02, 0x0d, 0x4c, 0x2d, 0x0b,
  0x15, 0x22, 0x03, 0xe9, 0x41, 0xc7, 0x16, 0xf9, 0xe5, 0xd0, 0x20, 0x1b,
  0xf3, 0xe7, 0xf8, 0x0f, 0x31, 0xea, 0x02, 0xc5, 0x1f, 0x0c, 0xf7, 0xf0,
  0xdc, 0x18, 0x24, 0xdf, 0xdb, 0xff, 0x00, 0xc6, 0x17, 0xce, 0xff, 0x32,
  0x00, 0xdd, 0xcd, 0x16, 0x2c, 0x18, 0x11, 0x1d, 0x04, 0xf9, 0x4a, 0xb4,
  0xfc, 0xdb, 0xe7, 0xec, 0x0b, 0x25, 0x0a, 0x43, 0x4f, 0xf4, 0x10, 0x21,
  0xbd, 0x09, 0x05, 0xfa, 0xf5, 0xf4, 0xec, 0x0b, 0x05, 0xbe, 0x01, 0x36,
  0xd8, 0x26, 0x1d, 0x14, 0x05, 0x0c, 0xbf, 0x20, 0xf1, 0x17, 0xdb, 0x11,
  0xdd, 0x16, 0x0e, 0x16, 0xf3, 0x3d, 0xc4, 0xf9, 0xfd, 0x17, 0x1c, 0xd9,
  0x01, 0x25, 0x13, 0xfd, 0xbf, 0x2c, 0xec, 0x1f, 0xff, 0xbc, 0x09, 0xf5,
  0xfb, 0xe2, 0x09, 0xbe, 0x2a, 0xfd, 0x33, 0x3f, 0xe7, 0xeb, 0x33, 0x02,
  0x07, 0xe8, 0x1d, 0xf3, 0x05, 0xeb, 0xef, 0xf6, 0x42, 0x25, 0x0f, 0xd0,
  0x4c, 0x16, 0x1d, 0x02, 0x21, 0xea, 0x09, 0xd3, 0x01, 0xbc, 0xb5, 0xe8,
  0x14, 0x44, 0xf5, 0x0e, 0x27, 0xf7, 0x22, 0xd9, 0xdb, 0xdb, 0x1a, 0x20,
  0xdd, 0xfc, 0xbb, 0x12, 0xe9, 0x02, 0xcd, 0xde, 0x0b, 0x04, 0xef, 0xfa,
  0xbc, 0xe6, 0x16, 0xe8, 0xb3, 0xde, 0xec, 0xb6, 0x00, 0xf4, 0xbf, 0xf8,
  0x17, 0xf0, 0xfc, 0xf2, 0xa4, 0xfd, 0xec, 0xc8, 0x0c, 0xf7, 0xad, 0x0b,
  0x29, 0x02, 0x0f, 0xfa, 0xdb, 0x11, 0xd1, 0xf2, 0x08, 0x20, 0xed, 0xf8,
  0x1a, 0xf3, 0x04, 0x0f, 0xf8, 0x07, 0xf4, 0xf0, 0x05, 0x05, 0xc6, 0xc8,
  0x2f, 0xff, 0x0d, 0xd4, 0x15, 0x0b, 0x08, 0xda, 0x0f, 0xdd, 0x02, 0xd6,
  0xfd, 0x24, 0x26, 0xde, 0x29, 0x08, 0xe1, 0xdc, 0x0d, 0x20, 0x1c, 0xf5,
  0xf1, 0xd1, 0xee, 0xf9, 0xfa, 0xe0, 0xfa, 0xbd, 0x12, 0xec, 0xd5, 0x10,
  0x01, 0xf3, 0x32, 0xe6, 0x1e, 0xf4, 0x15, 0xd8, 0xfa, 0xfe, 0x00, 0x20,
  0x10, 0x1f, 0x22, 0xf6, 0xe6, 0x2a, 0x28, 0xfc, 0x01, 0xfb, 0x0b, 0x06,
  0xfd, 0x0b, 0xeb, 0x33, 0xf7, 0x1b, 0x0c, 0xf7, 0x2e, 0xfa, 0x1b, 0xdc,
  0x0c, 0xfb, 0x27, 0x06, 0xd4, 0x17, 0x07, 0xff, 0x13, 0xd5, 0x15, 0xeb,
  0x24, 0x03, 0xc3, 0x16, 0x48, 0xf3, 0xaf, 0xe9, 0x2d, 0xd4, 0x0f, 0xfc,
  0xfb, 0x08, 0xb6, 0x11, 0x1a, 0x22, 0xf0, 0xd9, 0x34, 0x1d, 0x04, 0xc0,
  0x3d, 0xcb, 0x20, 0x37, 0x3e, 0x3d, 0xd0, 0x19, 0x1e, 0x18, 0xf4, 0xd1,
  0x28, 0xd2, 0xfd, 0xc6, 0xe9, 0xf8, 0xc1, 0x0a, 0xf4, 0x14, 0x1a, 0xed,
  0x08, 0x0b, 0xe0, 0xd7, 0x01, 0xff, 0x1f, 0x12, 0x21, 0xcd, 0x1d, 0xb4,
  0x06, 0x0f, 0xeb, 0x46, 0xb5, 0xf2, 0x08, 0x1f, 0x15, 0x16, 0x14, 0x01,
  0xfe, 0x1a, 0xdb, 0xf9, 0xe5, 0x1d, 0xdf, 0xf2, 0x24, 0x19, 0xec, 0xf9,
  0x0f, 0xea, 0xed, 0x00, 0x3e, 0x0b, 0xd9, 0x24, 0xfa, 0x4a, 0x11, 0xdf,
  0xf9, 0x03, 0xea, 0xd6, 0x19, 0x53, 0x1e, 0xde, 0xd7, 0x02, 0xdd, 0x39,
  0xe8, 0x2f, 0x2e, 0xcf, 0xf3, 0xe8, 0xaf, 0xf7, 0xe0, 0xf9, 0x00, 0xd8,
  0xe1, 0x16, 0xe9, 0x03, 0xfa, 0x0d, 0x36, 0x17, 0x08, 0xf9, 0xe0, 0xd4,
  0x24, 0x08, 0xdf, 0xfa, 0xda, 0x1f, 0x12, 0xf0, 0xf0, 0xf1, 0x16, 0x19,
  0x2b, 0xc7, 0xcf, 0x11, 0xe0, 0x05, 0x3d, 0xd1, 0x10, 0x38, 0xfe, 0x2e,
  0xea, 0xfb, 0x0a, 0xef, 0xf1, 0xd8, 0xdd, 0x25, 0xff, 0x21, 0xe8, 0x0c,
  0x00, 0x00, 0x1e, 0xfb, 0xcd, 0x3d, 0x24, 0x00, 0xfd, 0x2d, 0x1e, 0x34,
  0xf7, 0xe8, 0xe2, 0x00, 0x0c, 0xfd, 0xf3, 0xf7, 0x13, 0xee, 0xff, 0x4b,
  0x15, 0x4a, 0xe7, 0x0a, 0x16, 0x20, 0xf2, 0xe8, 0xcf, 0x15, 0xfc, 0x0c,
  0x40, 0xf2, 0x15, 0xf3, 0x1b, 0x14, 0x24, 0xd6, 0xf1, 0x11, 0xeb, 0xed,
  0x04, 0x0d, 0xf9, 0x2b, 0x02, 0x2b, 0xf8, 0x0f, 0x01, 0xff, 0x25, 0xe9,
  0x1e, 0x49, 0xd7, 0x01, 0x4e, 0x43, 0x24, 0x13, 0x26, 0x20, 0x0d, 0xcb,
  0xe5, 0xc4, 0x17, 0x25, 0xf7, 0x0b, 0xe4, 0x3d, 0x01, 0x0a, 0xef, 0x2d,
  0xf4, 0x27, 0xf9, 0xd0, 0xb4, 0xd7, 0xef, 0xf0, 0x3b, 0x29, 0xee, 0xd7,
  0xbe, 0x05, 0x11, 0x0b, 0x1b, 0x4a, 0xfc, 0x1a, 0xe5, 0xd9, 0xff, 0xe9,
  0xf6, 0xf3, 0x06, 0xe8, 0x40, 0xdb, 0x1f, 0x0d, 0xdf, 0xfe, 0x05, 0x0f,
  0x29, 0xec, 0xd5, 0x2b, 0x40, 0xe8, 0xff, 0x04, 0xda, 0x1b, 0x0a, 0xfc,
  0x26, 0x05, 0xeb, 0x0a, 0xee, 0xeb, 0x28, 0x0b, 0xec, 0x29, 0xc7, 0x25,
  0xf3, 0x10, 0x1f, 0x1c, 0x3a, 0x11, 0xe1, 0xe5, 0xd0, 0x16, 0x25, 0x24,
  0xf4, 0x0e, 0x10, 0x0d, 0x11, 0x0a, 0xca, 0xfc, 0xe3, 0xeb, 0x40, 0xe6,
  0x09, 0xf4, 0x28, 0xf0, 0xdb, 0xe8, 0xfb, 0xef, 0xcb, 0x0a, 0x13, 0xf8,
  0xf0, 0x12, 0xf7, 0x02, 0xb4, 0x2f, 0xdf, 0x52, 0x00, 0xce, 0xa6, 0x9e,
  0xf1, 0xf3, 0xb9, 0xd6, 0x02, 0x14, 0x3e, 0x0b, 0xed, 0x20, 0xe8, 0x2f,
  0x11, 0xe6, 0x0a, 0x07, 0xde, 0xe7, 0x36, 0x20, 0x17, 0x0d, 0xc2, 0xfe,
  0x30, 0x09, 0xc1, 0xed, 0x07, 0x0a, 0xfa, 0x15, 0x22, 0xfd, 0xdb, 0x34,
  0x54, 0xe3, 0xf9, 0xe4, 0xc9, 0x05, 0x2c, 0x14, 0x0d, 0xc6, 0x20, 0xcf,
  0x00, 0xe0, 0x16, 0xea, 0xe0, 0x1f, 0x3c, 0xfe, 0xe1, 0xf7, 0xe1, 0x43,
  0x15, 0xfd, 0x0b, 0x22, 0x15, 0x22, 0x01, 0x0b, 0x02, 0xc7, 0x18, 0x4a,
  0xd4, 0xdf, 0x28, 0xfe, 0x05, 0x26, 0x3d, 0x0d, 0xba, 0x23, 0x09, 0x01,
  0x35, 0xf0, 0x00, 0xf5, 0xd8, 0x52, 0xfe, 0x12, 0xec, 0x31, 0x09, 0x18,
  0x27, 0xe9, 0x25, 0xef, 0x3f, 0x16, 0x2a, 0x1a, 0xf8, 0x07, 0x0c, 0xc6,
  0x13, 0x3f, 0xdc, 0x2b, 0x31, 0xfb, 0xf8, 0xfa, 0xf1, 0x19, 0xe5, 0x1c,
  0x1d, 0x15, 0xe8, 0x2a, 0xd0, 0x0c, 0x1c, 0xbd, 0x00, 0x33, 0xde, 0x2c,
  0x1f, 0x02, 0xb7, 0xef, 0xd9, 0xf5, 0x0f, 0xd5, 0xf2, 0xe5, 0x01, 0x27,
  0xee, 0x2a, 0xde, 0xfa, 0x23, 0x15, 0xfa, 0x25, 0xe9, 0x26, 0xf3, 0x0c,
  0xe7, 0x00, 0x06, 0x00, 0xff, 0xbd, 0xea, 0xbe, 0x40, 0x24, 0xf4, 0xcd,
  0xda, 0xd4, 0xde, 0xeb, 0xec, 0xd7, 0xe9, 0x17, 0x28, 0xea, 0xff, 0x0e,
  0xe4, 0x36, 0x2f, 0xfc, 0x02, 0x2d, 0xf0, 0xcc, 0x10, 0x19, 0xe4, 0xfc,
  0xfa, 0xe1, 0x37, 0x34, 0xef, 0x28, 0xe7, 0x0f, 0x15, 0x25, 0x18, 0x1c,
  0x02, 0x0b, 0x27, 0x27, 0xf7, 0x08, 0x30, 0xfa, 0x02, 0xf1, 0x2a, 0xed,
  0xed, 0x0a, 0xd2, 0xd7, 0x20, 0x18, 0xfd, 0x15, 0x1d, 0xf9, 0xf3, 0xe1,
  0x1c, 0x3b, 0x14, 0xd7, 0xc9, 0x3b, 0x31, 0xd3, 0xcd, 0xfb, 0xf9, 0xf7,
  0xb2, 0x32, 0x47, 0xe4, 0x07, 0xfc, 0x0b, 0xfe, 0x14, 0x40, 0x37, 0xfc,
  0x04, 0xf8, 0xeb, 0xef, 0xd7, 0x06, 0xcc, 0xe9, 0xd6, 0xec, 0xbf, 0xf6,
  0xee, 0x20, 0xbc, 0x23, 0xf3, 0xd5, 0xe2, 0xf7, 0x00, 0xfe, 0x15, 0xc4,
  0xe2, 0x01, 0x05, 0x03, 0x05, 0x12, 0x09, 0xed, 0xff, 0xd7, 0xc5, 0xea,
  0xfc, 0x0c, 0x2b, 0xe0, 0xf0, 0xf0, 0xf3, 0xf3, 0x00, 0x0c, 0x09, 0xe3,
  0x21, 0xf6, 0xed, 0x07, 0x47, 0xfd, 0xe5, 0xc4, 0x28, 0xe9, 0x00, 0xed,
  0xc0, 0x1f, 0x05, 0x30, 0x02, 0xd4, 0x05, 0xf1, 0xf9, 0xfe, 0x20, 0xc8,
  0xc8, 0xb5, 0x0e, 0x19, 0x07, 0x24, 0x13, 0xee, 0xde, 0x33, 0xf7, 0x0e,
  0xf9, 0x34, 0xfa, 0x07, 0xe6, 0xfe, 0x23, 0xc5, 0xbe, 0xf8, 0x36, 0xb4,
  0xf2, 0xf4, 0xdb, 0xf2, 0xf7, 0xdf, 0xb1, 0x37, 0xfd, 0xf3, 0xf4, 0xd2,
  0x16, 0x18, 0xfd, 0xf1, 0x08, 0x1e, 0xde, 0x02, 0xf9, 0xf9, 0x18, 0xea,
  0x20, 0x19, 0xf5, 0xed, 0x04, 0xc7, 0x1f, 0x1d, 0x26, 0x04, 0x14, 0x18,
  0xe4, 0xff, 0x06, 0x01, 0x20, 0x48, 0x0d, 0xc2, 0xd2, 0x1c, 0xc2, 0x50,
  0xda, 0x0b, 0xf9, 0x11, 0xf0, 0x13, 0xc0, 0x07, 0xf2, 0xf6, 0x30, 0x22,
  0xdc, 0x24, 0xf9, 0xd2, 0xd3, 0x0c, 0x3e, 0x0d, 0x07, 0xcb, 0xee, 0xf8,
  0x08, 0xe1, 0x3d, 0x1f, 0xfc, 0xf8, 0x01, 0xf3, 0x14, 0xf0, 0xf4, 0xf8,
  0xec, 0x28, 0x40, 0x2a, 0x0a, 0x05, 0xe7, 0x0d, 0xf8, 0x1a, 0x0b, 0xdd,
  0xf6, 0xf2, 0x3e, 0x0d, 0x2b, 0xf5, 0xe3, 0xea, 0x30, 0xf6, 0x0e, 0xc0,
  0xe8, 0xcd, 0x16, 0x2e, 0x00, 0xfa, 0x03, 0x25, 0x17, 0x0c, 0x01, 0x42,
  0xe3, 0xe7, 0xe4, 0x08, 0xe1, 0xb3, 0xde, 0x14, 0x10, 0xd6, 0xfd, 0x06,
  0x1e, 0x24, 0xd9, 0x3e, 0x1f, 0x42, 0x1a, 0x10, 0x09, 0x22, 0xe8, 0x2f,
  0xe3, 0x06, 0x04, 0xee, 0xd1, 0x17, 0x3a, 0x13, 0x4a, 0x37, 0xc6, 0xc8,
  0x24, 0xd5, 0x08, 0xef, 0x13, 0x3e, 0x23, 0xda, 0x26, 0x15, 0xf7, 0x3d,
  0xe8, 0x1a, 0xf9, 0x3c, 0xc9, 0x28, 0x15, 0xd1, 0xf7, 0xfc, 0xc7, 0x26,
  0x39, 0xfc, 0xf2, 0x18, 0xff, 0x01, 0x2d, 0xc9, 0xda, 0x02, 0xda, 0x14,
  0x21, 0xd4, 0xe8, 0xd8, 0xde, 0xe5, 0x0b, 0x0c, 0x29, 0xf7, 0x22, 0xea,
  0x06, 0xc2, 0x19, 0x12, 0xb9, 0x03, 0x17, 0xec, 0xe2, 0xf1, 0x4a, 0x2e,
  0x35, 0x06, 0x08, 0xde, 0xef, 0x1b, 0x0d, 0x26, 0x28, 0xf8, 0xfe, 0x24,
  0xe6, 0xe3, 0x09, 0xe3, 0xe5, 0xf7, 0xea, 0xd3, 0x1f, 0xd4, 0xda, 0xbf,
  0xd1, 0xbd, 0x0c, 0x06, 0xe2, 0x20, 0xfa, 0xfa, 0xd6, 0x12, 0xfc, 0x16,
  0xe9, 0xd1, 0xd8, 0x16, 0x1d, 0x0b, 0x27, 0x2b, 0x0a, 0xe1, 0x22, 0x0f,
  0xd8, 0xef, 0xcd, 0xf5, 0xe7, 0xe9, 0x33, 0x11, 0xf9, 0x31, 0x28, 0x3f,
  0xf9, 0x26, 0x39, 0xec, 0x2b, 0xf9, 0x05, 0xd2, 0xe4, 0x04, 0xf4, 0xda,
  0xdf, 0x20, 0xdd, 0xfc, 0xb6, 0xfb, 0xf4, 0xce, 0x14, 0x1b, 0x1b, 0x14,
  0xff, 0x1b, 0xfb, 0x21, 0xf0, 0xf5, 0xbe, 0x1b, 0x02, 0x11, 0xc9, 0xd4,
  0xcf, 0xcb, 0xd5, 0x0b, 0x26, 0xbd, 0xed, 0xe2, 0x43, 0x06, 0x0e, 0xca,
  0x1e, 0xfd, 0x21, 0xe2, 0x30, 0x05, 0xf1, 0x4c, 0x2c, 0xfc, 0xec, 0xf6,
  0xe3, 0x1a, 0x09, 0xf6, 0xc0, 0xe7, 0xeb, 0xfe, 0xed, 0xe1, 0xf2, 0xff,
  0xee, 0x0b, 0xcb, 0xfc, 0x03, 0xf2, 0xf3, 0x28, 0xe0, 0xf7, 0xe4, 0x2b,
  0x09, 0x2d, 0x07, 0x07, 0x09, 0xdc, 0xfc, 0x10, 0xec, 0xe7, 0xe1, 0xfc,
  0xce, 0xf8, 0x03, 0xe7, 0xe8, 0xf2, 0xd5, 0x27, 0xf1, 0x25, 0x2d, 0x47,
  0xf2, 0x32, 0xf5, 0x0d, 0x00, 0x1b, 0x52, 0x20, 0xd2, 0x1c, 0xc6, 0xf1,
  0xe7, 0x19, 0x20, 0xeb, 0xd8, 0x44, 0x25, 0x2a, 0x14, 0xf2, 0x0a, 0x0d,
  0xc8, 0xe3, 0xed, 0xc1, 0xb5, 0xff, 0xc3, 0xec, 0x08, 0x12, 0x18, 0x26,
  0x03, 0xec, 0x16, 0xef, 0x10, 0x1b, 0x0a, 0x2e, 0x3a, 0x02, 0x00, 0x33,
  0x23, 0x27, 0xeb, 0x2d, 0xeb, 0x1d, 0x26, 0xee, 0x28, 0x11, 0xf6, 0x14,
  0x1a, 0xe5, 0xf2, 0xc8, 0xfd, 0xf3, 0xe6, 0xe6, 0x0b, 0x39, 0x17, 0xe8,
  0xf4, 0x22, 0xc6, 0x12, 0x03, 0x06, 0xf5, 0x1a, 0x08, 0xfc, 0x01, 0x0c,
  0x05, 0xc7, 0x1f, 0x27, 0x35, 0x13, 0x0d, 0x1e, 0x01, 0xff, 0x15, 0xe1,
  0x00, 0x28, 0x29, 0xfa, 0x17, 0xa3, 0xef, 0xf1, 0x04, 0xfb, 0xff, 0xed,
  0x2b, 0xf0, 0x12, 0xe8, 0xfa, 0xe2, 0x25, 0xbb, 0xf0, 0x2f, 0x16, 0x1c,
  0xf6, 0x03, 0x17, 0xf2, 0x29, 0x1a, 0xdb, 0x06, 0x2d, 0xdd, 0x0c, 0xcf,
  0xe1, 0x2c, 0xc9, 0x19, 0x1a, 0x24, 0x0b, 0x1f, 0x12, 0xe6, 0xd2, 0x16,
  0xd1, 0x0c, 0x29, 0x3d, 0x09, 0x0f, 0xe1, 0x04, 0xfd, 0x23, 0x26, 0x0a,
  0xce, 0xfb, 0xe9, 0x3d, 0xe8, 0x1a, 0xde, 0x13, 0x13, 0xb9, 0x0c, 0xfa,
  0xc2, 0x2c, 0xeb, 0xec, 0x27, 0x0e, 0xf2, 0x3f, 0x26, 0xf0, 0x00, 0xe6,
  0xbc, 0x30, 0x20, 0xc1, 0x1f, 0xe4, 0x19, 0x1e, 0x42, 0xd9, 0xdf, 0xd2,
  0xe5, 0xfb, 0x17, 0xc4, 0xc1, 0xbe, 0xfe, 0xe8, 0x3c, 0xfe, 0xba, 0xfe,
  0x18, 0xe1, 0x16, 0xfc, 0x27, 0xec, 0xec, 0x31, 0xe2, 0xdc, 0x33, 0x04,
  0x15, 0x25, 0xf3, 0x1c, 0xe7, 0x18, 0xfe, 0xd7, 0xf7, 0xd2, 0x1b, 0xdc,
  0xfc, 0x23, 0xf8, 0x08, 0xce, 0xd6, 0x08, 0xe5, 0x0a, 0xec, 0xcc, 0x04,
  0xf3, 0xe7, 0xae, 0x15, 0x28, 0xf5, 0x18, 0xd3, 0x1d, 0x06, 0x09, 0x15,
  0x3b, 0xfd, 0x10, 0x42, 0xe0, 0xcf, 0x0c, 0x14, 0xf4, 0xd0, 0xdc, 0xf5,
  0x1e, 0x0a, 0x24, 0x23, 0x48, 0xbe, 0xff, 0x4a, 0xfe, 0xeb, 0x46, 0x2e,
  0xfe, 0x3d, 0xde, 0x0f, 0xfe, 0x46, 0x1d, 0x0e, 0x2c, 0x0b, 0x10, 0x31,
  0x07, 0xcd, 0x2e, 0xbc, 0x26, 0xff, 0x07, 0x22, 0x1a, 0xdf, 0x4e, 0x1a,
  0xe3, 0x25, 0x1c, 0xd9, 0x2d, 0x2a, 0x19, 0xe7, 0x18, 0x06, 0xdc, 0x32,
  0x17, 0x0f, 0x0d, 0xe6, 0x2b, 0x1a, 0x1e, 0x07, 0xec, 0x1c, 0x19, 0x58,
  0x09, 0xf2, 0x26, 0xe0, 0x04, 0x1f, 0x09, 0xb0, 0x0f, 0x2c, 0x21, 0xd6,
  0x15, 0xf5, 0x0a, 0x3f, 0xd9, 0xca, 0xe0, 0xa5, 0x01, 0x27, 0x05, 0xfd,
  0x2a, 0xe2, 0x07, 0xe1, 0x12, 0x05, 0xd2, 0x32, 0x0c, 0xf3, 0x60, 0xfa,
  0x18, 0xfc, 0x36, 0x16, 0x1a, 0xe8, 0x3c, 0xf2, 0xfb, 0xe9, 0x06, 0xcd,
  0xef, 0x31, 0xda, 0x4b, 0xf5, 0xd4, 0xe4, 0xef, 0x2a, 0xfc, 0xec, 0xfd,
  0x3c, 0x0f, 0x3c, 0x13, 0xfb, 0xf1, 0xf9, 0x2c, 0x05, 0x22, 0x0d, 0xcd,
  0x00, 0xb1, 0xe6, 0x11, 0x13, 0x2d, 0x2c, 0x14, 0xeb, 0xf1, 0x0c, 0x00,
  0xf6, 0x17, 0x09, 0x03, 0x0d, 0x1a, 0xf2, 0x0b, 0xff, 0xed, 0xeb, 0xd3,
  0xd8, 0x1e, 0x0f, 0x29, 0xc1, 0x2b, 0xce, 0x0f, 0x2b, 0xee, 0xe3, 0x0c,
  0x09, 0x43, 0x0f, 0xe7, 0xff, 0xb5, 0x16, 0x39, 0xf8, 0xb3, 0x3d, 0x0e,
  0xc2, 0x2f, 0x10, 0x0c, 0x37, 0x01, 0xb0, 0xe0, 0xe0, 0xc3, 0xef, 0xde,
  0x0d, 0xca, 0x1e, 0xc5, 0xd7, 0x13, 0x15, 0xe9, 0xe9, 0x0f, 0xef, 0x11,
  0xc9, 0xc5, 0xfa, 0xe9, 0x43, 0xd0, 0xdd, 0xe4, 0x44, 0x19, 0x01, 0x0c,
  0xe1, 0x0a, 0x20, 0xef, 0x0b, 0x06, 0x06, 0x3d, 0x27, 0xe1, 0xff, 0xb4,
  0x17, 0x2b, 0xe1, 0xe9, 0xd0, 0x0c, 0xd3, 0x1c, 0xea, 0xbe, 0xf0, 0x16,
  0xfc, 0x12, 0x22, 0x1d, 0x1c, 0x22, 0x05, 0xec, 0x0b, 0xee, 0xfd, 0x1e,
  0x15, 0xfc, 0xf7, 0xd3, 0xdc, 0x13, 0xf2, 0xfd, 0xd7, 0x3e, 0xc6, 0xdd,
  0x17, 0x07, 0x08, 0x03, 0xd5, 0xf9, 0xf2, 0x0d, 0xe9, 0x0e, 0xff, 0xd4,
  0x05, 0x24, 0xba, 0x26, 0xe7, 0x34, 0x15, 0x35, 0xbb, 0xd5, 0x47, 0x12,
  0xbf, 0x0b, 0xe3, 0x0f, 0x08, 0xca, 0x1e, 0xf0, 0x17, 0x18, 0x15, 0x1c,
  0x0e, 0x49, 0xc9, 0x39, 0xdf, 0x51, 0x15, 0x12, 0x21, 0x2d, 0x0c, 0xb5,
  0xea, 0x11, 0x17, 0x0d, 0xfd, 0x02, 0x1e, 0x02, 0xba, 0xda, 0x04, 0xd8,
  0xff, 0x22, 0x1f, 0xcd, 0x04, 0xef, 0x06, 0xfd, 0x0e, 0xc6, 0xe7, 0xea,
  0xe2, 0x28, 0x27, 0xf7, 0x27, 0x0a, 0x1e, 0x3f, 0x48, 0xe9, 0xd4, 0xf6,
  0xe8, 0x23, 0xcd, 0x05, 0x3e, 0xee, 0x1b, 0xf3, 0x27, 0xfc, 0xf6, 0x01,
  0x34, 0xe2, 0xd5, 0xea, 0x34, 0x29, 0x18, 0xe6, 0xef, 0xce, 0xbd, 0x28,
  0x11, 0xed, 0x00, 0xe8, 0x39, 0x1c, 0xbc, 0x37, 0xb3, 0xdf, 0xfd, 0xf5,
  0x2d, 0xfd, 0x2d, 0xe7, 0xe1, 0xe7, 0xf7, 0x27, 0x21, 0xe4, 0x11, 0xd2,
  0x0f, 0x05, 0x1b, 0x15, 0xd3, 0xf6, 0xcb, 0x2d, 0xf9, 0xec, 0x2e, 0x1a,
  0xd7, 0xff, 0x19, 0x29, 0xea, 0x2b, 0xf3, 0x46, 0xfc, 0xf4, 0x3f, 0x20,
  0xd6, 0xed, 0xf1, 0xdc, 0x2f, 0x0b, 0xf1, 0xf2, 0x1b, 0xf4, 0xe3, 0x11,
  0xd6, 0xc0, 0x06, 0x0a, 0x02, 0x2b, 0x1b, 0xf8, 0x14, 0xf7, 0xe9, 0x1b,
  0x04, 0x40, 0x36, 0xe7, 0xb1, 0xbe, 0x13, 0x07, 0x1c, 0x39, 0xfa, 0xee,
  0x4c, 0xdf, 0x10, 0x1b, 0x03, 0xcc, 0x2b, 0xe6, 0xfd, 0xdf, 0xd9, 0x1f,
  0x32, 0xf7, 0xb7, 0xf4, 0xcf, 0x0c, 0x15, 0x05, 0xf2, 0x00, 0xb7, 0xd9,
  0x32, 0xea, 0xd1, 0xdc, 0x18, 0x43, 0xd0, 0x4b, 0x2b, 0x24, 0x06, 0x18,
  0xfb, 0x2b, 0x4a, 0xc4, 0xe8, 0xcb, 0x08, 0xd9, 0x3d, 0xcd, 0x24, 0xfd,
  0x09, 0xf4, 0xf4, 0xc9, 0xe9, 0x20, 0xec, 0xd4, 0x3d, 0x08, 0xfa, 0x34,
  0xe8, 0x0d, 0xf8, 0xf7, 0x00, 0x0d, 0x30, 0xb3, 0x37, 0xfb, 0x2f, 0x06,
  0x18, 0x13, 0x20, 0x25, 0x1e, 0xe6, 0x07, 0xb8, 0xea, 0x19, 0x19, 0xf7,
  0x2a, 0x1c, 0x22, 0xd7, 0xff, 0x12, 0x12, 0x16, 0xe6, 0xe4, 0xf3, 0xc1,
  0x3c, 0xce, 0x22, 0xcc, 0x07, 0x24, 0x1c, 0x33, 0xc4, 0xfa, 0xe6, 0x33,
  0x1f, 0xd6, 0x29, 0x52, 0x09, 0xd8, 0xd2, 0xd0, 0x46, 0x1c, 0xfe, 0xca,
  0x03, 0x09, 0x28, 0xf5, 0x3a, 0xe2, 0xc6, 0xcd, 0x17, 0xff, 0x03, 0xa5,
  0xe3, 0xda, 0x4c, 0xe4, 0x18, 0xfc, 0xbf, 0xdf, 0xfe, 0xca, 0x0b, 0xf2,
  0x27, 0x22, 0xca, 0x24, 0xe1, 0x31, 0xe9, 0xf7, 0x17, 0xce, 0x0f, 0x31,
  0x12, 0xf2, 0x10, 0xf4, 0x0a, 0xd5, 0x11, 0x19, 0x08, 0xd4, 0x04, 0xdc,
  0xca, 0x38, 0xf8, 0x12, 0xf0, 0xfa, 0x0f, 0x2a, 0x17, 0xf7, 0x1f, 0x2d,
  0x23, 0x25, 0xe8, 0xb0, 0x40, 0xd0, 0x4d, 0x2a, 0xf2, 0xe7, 0x23, 0xdc,
  0x28, 0xf2, 0xdb, 0xed, 0xd2, 0xd1, 0x1f, 0x20, 0x4c, 0xe1, 0x08, 0xc3,
  0xd6, 0x3c, 0x38, 0x16, 0x14, 0x40, 0xfe, 0x4a, 0xc3, 0xdd, 0xe7, 0xae,
  0x36, 0x2f, 0x26, 0xdf, 0x0a, 0xbe, 0x46, 0x25, 0x0b, 0x2b, 0xcb, 0xe6,
  0xea, 0xfc, 0xd9, 0xf3, 0x3c, 0x18, 0x05, 0x4a, 0x11, 0x0f, 0xf4, 0xd7,
  0x05, 0xcc, 0x40, 0x0c, 0x04, 0xe3, 0xfc, 0xd8, 0x1d, 0xba, 0xfd, 0xb4,
  0xef, 0x29, 0xfd, 0x0b, 0x17, 0xf0, 0x17, 0xf8, 0xd6, 0xfb, 0x1e, 0xd9,
  0xc7, 0xed, 0x30, 0x03, 0xe6, 0x39, 0x30, 0xc1, 0x0d, 0x1f, 0x0f, 0x08,
  0xd5, 0xcc, 0x25, 0xfd, 0x17, 0xda, 0x2a, 0xf5, 0xf6, 0x0c, 0x28, 0xc7,
  0x00, 0x23, 0xff, 0x45, 0x31, 0x00, 0x07, 0x12, 0xe9, 0xf2, 0x3c, 0x35,
  0x47, 0x10, 0x14, 0xda, 0x55, 0x40, 0x31, 0x24, 0x2f, 0xcd, 0xd4, 0x25,
  0x03, 0x1e, 0x1d, 0xcf, 0xf7, 0xc2, 0xf1, 0xeb, 0xf5, 0x01, 0xfc, 0xec,
  0xfc, 0xf9, 0xe4, 0x12, 0x48, 0xf0, 0xd3, 0xe8, 0xce, 0xfb, 0x11, 0x4b,
  0xcf, 0x30, 0xcd, 0xc8, 0xc8, 0xe7, 0x17, 0xe9, 0x3a, 0xee, 0x18, 0x38,
  0xf8, 0xe6, 0x2a, 0x0b, 0x3a, 0xe1, 0xdb, 0x11, 0x00, 0xff, 0xdd, 0x09,
  0xc2, 0x2b, 0x3e, 0x10, 0xf6, 0xfd, 0x0a, 0xb8, 0x13, 0xe7, 0x1a, 0xbb,
  0xee, 0xcf, 0xe3, 0x2c, 0xf3, 0xf5, 0x0c, 0x0f, 0x0d, 0x2f, 0x13, 0x01,
  0x2b, 0xf4, 0x10, 0x0e, 0x1a, 0xb8, 0x39, 0xe1, 0xca, 0xe8, 0x06, 0x20,
  0xe5, 0xfa, 0xe6, 0xdb, 0x03, 0x3d, 0xe2, 0xdc, 0xf0, 0xe2, 0x39, 0xeb,
  0xf6, 0xfa, 0xf9, 0x07, 0xdc, 0xe3, 0x29, 0x14, 0x11, 0x0e, 0xf3, 0x1a,
  0xed, 0xf1, 0x12, 0x05, 0x50, 0xf1, 0xbf, 0xf4, 0xf8, 0x2f, 0xde, 0xea,
  0x19, 0xf4, 0x17, 0x29, 0xe9, 0xd5, 0x08, 0xeb, 0x15, 0x16, 0x19, 0x32,
  0xf5, 0xec, 0x35, 0xce, 0xe3, 0x1a, 0x03, 0x05, 0xe1, 0x1e, 0xff, 0xe6,
  0xe1, 0xf1, 0xed, 0x1f, 0x26, 0x04, 0xff, 0xc6, 0xb7, 0xbb, 0xec, 0xf6,
  0xdc, 0xf7, 0xf1, 0xec, 0xba, 0xf3, 0x11, 0xce, 0x14, 0xff, 0xb4, 0xf3,
  0xeb, 0x36, 0xe8, 0x19, 0xd3, 0x0d, 0x13, 0x24, 0x26, 0xf4, 0xd2, 0x0b,
  0x28, 0x21, 0xf8, 0x1e, 0xd6, 0x09, 0x30, 0xed, 0x20, 0xcc, 0xef, 0x4f,
  0x0a, 0x11, 0x4d, 0x2e, 0x15, 0xe0, 0x4b, 0xc7, 0xe2, 0xd7, 0x09, 0x28,
  0x4b, 0xc8, 0x33, 0xd6, 0xd9, 0xc7, 0xe0, 0xd1, 0x21, 0x26, 0x03, 0xdc,
  0xdf, 0xef, 0xf4, 0xf9, 0xfa, 0x0e, 0x25, 0xf2, 0xe4, 0xed, 0xfa, 0xf0,
  0xcb, 0x24, 0xe6, 0xc5, 0xe1, 0xe8, 0x0e, 0xb9, 0x02, 0xd5, 0x29, 0xdb,
  0x0d, 0xd7, 0x3c, 0x28, 0x28, 0x17, 0x0b, 0xdb, 0x13, 0xfc, 0xeb, 0xd9,
  0x0d, 0xf5, 0x19, 0xc8, 0x40, 0x3b, 0x18, 0x4b, 0x29, 0x43, 0xf9, 0x14,
  0xeb, 0x12, 0x16, 0x08, 0xb2, 0xff, 0x11, 0xe9, 0xc9, 0xf0, 0x11, 0xfd,
  0xda, 0xc8, 0x20, 0x06, 0x38, 0xf7, 0x12, 0x41, 0xe2, 0x2a, 0x0b, 0xed,
  0xfd, 0xc3, 0xfc, 0x17, 0x07, 0xe8, 0xf9, 0xde, 0x09, 0xf9, 0x0e, 0xda,
  0xde, 0xfd, 0xd8, 0x0e, 0xd8, 0xdb, 0x1b, 0x3a, 0x27, 0x10, 0xf4, 0x0b,
  0x08, 0x40, 0x32, 0x00, 0xfc, 0xec, 0x09, 0x30, 0xce, 0xf5, 0xeb, 0xf5,
  0xe9, 0x1b, 0x03, 0x1d, 0x36, 0x23, 0xfc, 0xf2, 0xf5, 0xf5, 0x0c, 0xef,
  0x33, 0x1c, 0xd2, 0x05, 0xe6, 0x1b, 0xf9, 0xd7, 0x24, 0x1c, 0x2a, 0x0e,
  0xef, 0xf0, 0xe4, 0xec, 0xb5, 0xec, 0x02, 0x2f, 0xf7, 0x01, 0x17, 0x0c,
  0x24, 0xd4, 0xd9, 0xf5, 0xfd, 0x14, 0x04, 0xd9, 0x10, 0x19, 0x23, 0x16,
  0xf5, 0x40, 0x14, 0xfa, 0x13, 0x5d, 0x11, 0xe4, 0xaf, 0x1b, 0x17, 0x03,
  0x22, 0xdf, 0xc6, 0xf7, 0x15, 0xd9, 0x02, 0xe1, 0xf2, 0x05, 0xf5, 0xd1,
  0x30, 0xf1, 0xdb, 0xd0, 0x3e, 0x17, 0xfb, 0x21, 0x2a, 0x14, 0xea, 0xfe,
  0xfb, 0x28, 0xfa, 0xc7, 0x51, 0x12, 0xcb, 0x09, 0x08, 0x1d, 0x34, 0xc3,
  0xfe, 0x3b, 0x3b, 0xdc, 0x33, 0xde, 0x19, 0x44, 0x13, 0xff, 0x1a, 0x0f,
  0xe3, 0x1c, 0x12, 0xe4, 0xff, 0xfe, 0x20, 0xd9, 0x2c, 0xf6, 0x0a, 0xe9,
  0xc9, 0x13, 0x3c, 0x38, 0x05, 0xf5, 0x08, 0xfc, 0x31, 0xe8, 0x2b, 0xc3,
  0xf0, 0x1a, 0x1c, 0xd1, 0xe7, 0x32, 0xf0, 0x02, 0xe5, 0xc9, 0xf3, 0xe2,
  0xec, 0xfe, 0x03, 0x15, 0x2f, 0xce, 0xd7, 0x1a, 0xd5, 0x37, 0x35, 0xc0,
  0xee, 0x22, 0x19, 0x23, 0xf0, 0xd2, 0xfd, 0xed, 0xd6, 0x31, 0xe5, 0x02,
  0x2c, 0xde, 0xf2, 0xee, 0x09, 0x30, 0x67, 0xfa, 0xc4, 0xd8, 0xd7, 0x30,
  0x7f, 0xef, 0xf9, 0x07, 0xbf, 0xdd, 0xe9, 0x26, 0x04, 0xe9, 0x2f, 0x10,
  0x38, 0xff, 0xf8, 0x28, 0x38, 0xe8, 0x49, 0xf3, 0x3f, 0x1a, 0x2b, 0x41,
  0xfa, 0x15, 0xd8, 0xfd, 0x33, 0x0a, 0x21, 0x4d, 0xfa, 0xb3, 0x06, 0x1b,
  0x0a, 0x34, 0xf8, 0x21, 0x01, 0xf5, 0x01, 0x40, 0xfe, 0x1f, 0xe8, 0xf8,
  0xfb, 0xfe, 0x46, 0x23, 0x05, 0x29, 0xf5, 0x05, 0x0a, 0x2b, 0x01, 0x1b,
  0xce, 0x05, 0x14, 0xe3, 0x4c, 0xfc, 0xdd, 0xc5, 0x1e, 0xfb, 0xe8, 0xbe,
  0xcd, 0x2e, 0x3a, 0x0f, 0xce, 0xb0, 0xdf, 0xdc, 0xd0, 0xdd, 0x19, 0x02,
  0x30, 0x14, 0xbc, 0xf5, 0xc7, 0xcb, 0xfd, 0xc8, 0xf8, 0xff, 0x29, 0xe7,
  0xfe, 0xce, 0x36, 0xf2, 0xc1, 0x24, 0xf0, 0xf4, 0x25, 0x09, 0xe3, 0xe5,
  0x12, 0x0b, 0xe3, 0x1c, 0x16, 0x22, 0x06, 0x1e, 0x17, 0x48, 0xed, 0xe3,
  0xf4, 0x11, 0x18, 0x06, 0xdb, 0x02, 0x24, 0x07, 0x0e, 0x3c, 0xf9, 0xef,
  0xf6, 0xea, 0xe0, 0xe9, 0x0e, 0xfa, 0x19, 0x21, 0x12, 0x20, 0xd9, 0x17,
  0x07, 0x24, 0x28, 0x25, 0x1a, 0x19, 0x32, 0x21, 0x4a, 0xbe, 0x05, 0x2e,
  0x40, 0x06, 0x0b, 0xd0, 0xdd, 0xfc, 0xbe, 0xdb, 0xd8, 0xeb, 0x1a, 0x11,
  0x1b, 0xeb, 0xe4, 0x21, 0x00, 0x1b, 0xeb, 0x0b, 0x19, 0xe4, 0xba, 0x08,
  0x05, 0xfe, 0xdf, 0x0a, 0xe6, 0x01, 0xec, 0x19, 0x26, 0xce, 0xdf, 0x24,
  0xfa, 0x13, 0x0c, 0x2b, 0xf9, 0x18, 0x3c, 0x0f, 0xea, 0x46, 0x04, 0x2f,
  0xc0, 0x26, 0xe7, 0xfb, 0xd4, 0x06, 0x03, 0x0f, 0x14, 0xc6, 0x3e, 0x1d,
  0x23, 0x20, 0xed, 0xe3, 0xfc, 0xdc, 0xf0, 0x00, 0xff, 0x03, 0xde, 0xf8,
  0x1c, 0xfb, 0x10, 0xe0, 0x09, 0xf2, 0x20, 0xeb, 0xcb, 0xda, 0x2e, 0x28,
  0xf4, 0xe0, 0x33, 0x0a, 0x26, 0x0a, 0xc9, 0x0f, 0x28, 0xd1, 0xd1, 0x25,
  0xe6, 0x32, 0x0b, 0xec, 0xde, 0xb5, 0x0d, 0x15, 0x1e, 0xf8, 0x2c, 0x10,
  0xcf, 0x33, 0xe4, 0xed, 0xeb, 0x0f, 0x13, 0x2d, 0xc5, 0xed, 0xe1, 0xf9,
  0xea, 0x05, 0xfa, 0x22, 0x04, 0x03, 0x3f, 0xba, 0x15, 0xe5, 0xf9, 0x21,
  0x0b, 0x2c, 0xd5, 0x1d, 0xd0, 0xf1, 0xf0, 0xf0, 0x3b, 0x05, 0x00, 0x08,
  0x2a, 0x05, 0xe8, 0xb6, 0x05, 0xf9, 0x3b, 0xb8, 0x33, 0x23, 0xb6, 0x13,
  0x18, 0x20, 0x1e, 0xe3, 0x16, 0x00, 0xfd, 0xda, 0xfe, 0x29, 0x04, 0xff,
  0x08, 0xf9, 0x05, 0x04, 0xf5, 0x03, 0x07, 0x43, 0xf4, 0x3c, 0x0f, 0xd1,
  0xb4, 0xf7, 0x3d, 0x04, 0x01, 0xeb, 0x12, 0x01, 0x0c, 0x07, 0xf5, 0x07,
  0x1e, 0xe1, 0x0f, 0x08, 0xda, 0x3f, 0xca, 0x02, 0x20, 0xd2, 0xf9, 0xeb,
  0xd0, 0xd9, 0xe3, 0xe5, 0xfa, 0xfa, 0xdf, 0xe3, 0x44, 0xd1, 0xf5, 0xcf,
  0x20, 0x17, 0xd1, 0xad, 0xf8, 0x2d, 0xf8, 0x20, 0xe8, 0x0e, 0xda, 0xd3,
  0xde, 0xe9, 0x04, 0x1c, 0xc2, 0x1d, 0x2d, 0xfb, 0x10, 0x1a, 0x09, 0x02,
  0x33, 0xdb, 0xe1, 0x27, 0x17, 0x15, 0xfe, 0xf8, 0xd3, 0x03, 0xba, 0x0f,
  0x15, 0x10, 0xe4, 0x0d, 0xf2, 0xc4, 0x02, 0x13, 0xe6, 0xf7, 0xf2, 0xf5,
  0xfd, 0xd4, 0x0e, 0x15, 0x20, 0x20, 0x1e, 0x2d, 0x3b, 0x14, 0x1a, 0x15,
  0x41, 0x19, 0x21, 0x3c, 0xe1, 0xf2, 0xdc, 0x20, 0x11, 0x36, 0x13, 0xec,
  0x12, 0xf2, 0x0f, 0xce, 0xc7, 0xc5, 0x32, 0xef, 0xcd, 0x28, 0xf0, 0x43,
  0xce, 0x10, 0xf7, 0xb3, 0x21, 0x06, 0xf7, 0x0d, 0x29, 0x1a, 0x04, 0x45,
  0x18, 0xf3, 0xc5, 0x03, 0x1b, 0x00, 0x2a, 0xf1, 0xef, 0xe0, 0xd6, 0xb4,
  0x2e, 0xfb, 0xcc, 0xd5, 0x09, 0xc9, 0x25, 0x35, 0x18, 0xd8, 0x23, 0xfa,
  0x2b, 0x09, 0xed, 0x2c, 0xf1, 0x1b, 0xed, 0xed, 0xf8, 0x0d, 0x20, 0xc5,
  0xc6, 0xf6, 0xff, 0x0e, 0x0c, 0x05, 0x2f, 0xdf, 0x41, 0x36, 0x27, 0xc6,
  0xd3, 0xc0, 0x0d, 0x2a, 0x2b, 0xbf, 0x15, 0xc6, 0x28, 0xd0, 0x2c, 0xf8,
  0x29, 0x05, 0x18, 0xe4, 0xfc, 0x36, 0xcf, 0x04, 0x15, 0xfe, 0x3a, 0x1e,
  0x2a, 0x3d, 0xd2, 0x14, 0x07, 0xdd, 0x0a, 0x07, 0x0d, 0xd9, 0x25, 0x2d,
  0xe7, 0x3d, 0xc4, 0xfe, 0x06, 0x24, 0x1e, 0xf1, 0x01, 0xea, 0xe5, 0xc3,
  0x1b, 0xf7, 0x08, 0xce, 0xcc, 0x02, 0x12, 0xc8, 0xe6, 0xdc, 0xd3, 0xbb,
  0xdf, 0xce, 0x0f, 0xf5, 0xd1, 0x03, 0x1d, 0x50, 0xc0, 0x19, 0xf7, 0xb6,
  0xdd, 0x17, 0xd1, 0x0f, 0x0e, 0x22, 0x4d, 0xd2, 0x00, 0x04, 0x1e, 0xd7,
  0x21, 0xc7, 0xfc, 0xb8, 0xcc, 0x07, 0x27, 0xd0, 0x10, 0xfd, 0x14, 0x12,
  0x0b, 0xf9, 0xd6, 0x36, 0x27, 0xd0, 0x0c, 0xd1, 0xfa, 0xfe, 0xd0, 0xd5,
  0x26, 0xf3, 0xe9, 0x2b, 0x3a, 0xdf, 0xdb, 0xe2, 0xf8, 0xe2, 0xc3, 0x28,
  0xf2, 0x32, 0xec, 0xf7, 0x2d, 0xf7, 0x25, 0x05, 0x25, 0x0b, 0xff, 0xeb,
  0xe2, 0xea, 0xc6, 0xd5, 0xc2, 0x37, 0xe7, 0x09, 0xd7, 0x41, 0x13, 0x3f,
  0xf6, 0x17, 0x02, 0xe1, 0x31, 0xaf, 0x31, 0xe7, 0xed, 0x03, 0x32, 0x38,
  0xf5, 0x16, 0x19, 0xcd, 0xed, 0x17, 0xea, 0x3c, 0xe7, 0x34, 0xdf, 0xe4,
  0xdb, 0x03, 0xda, 0x11, 0xf4, 0x0d, 0x4a, 0x1e, 0xff, 0xfe, 0xe0, 0x1c,
  0xe4, 0x26, 0x15, 0xbe, 0x46, 0xfd, 0xe4, 0xe5, 0x28, 0x18, 0x07, 0xb5,
  0x01, 0xe9, 0x2a, 0x27, 0xce, 0xd4, 0xe5, 0x46, 0x28, 0xc1, 0x4a, 0x29,
  0xf3, 0xf8, 0xfd, 0xfa, 0x21, 0x29, 0xe0, 0x2d, 0x17, 0xfd, 0xe8, 0xc9,
  0xf3, 0xfc, 0x0a, 0xf2, 0x32, 0xf8, 0x16, 0xc4, 0x21, 0xd5, 0xe0, 0x0e,
  0xec, 0x16, 0x11, 0xc4, 0x11, 0xee, 0x27, 0x0f, 0xe4, 0x38, 0xea, 0x00,
  0x0d, 0x22, 0xf1, 0x0c, 0x4a, 0x04, 0x17, 0xd6, 0x11, 0x24, 0xe0, 0x10,
  0xbd, 0x29, 0xdd, 0xd6, 0x2a, 0xff, 0x04, 0xe6, 0xce, 0x0a, 0xff, 0x0d,
  0x02, 0x05, 0xef, 0xc7, 0x3c, 0xf9, 0xf4, 0x2a, 0x3d, 0x14, 0xcb, 0x10,
  0xeb, 0x14, 0x40, 0xff, 0xf0, 0x1c, 0xe7, 0x47, 0xdc, 0xe7, 0x22, 0x0c,
  0x39, 0xc9, 0xe1, 0xf8, 0x19, 0xd4, 0xe4, 0x3f, 0xeb, 0x2c, 0xeb, 0x26,
  0x38, 0x40, 0xd2, 0x11, 0x1b, 0x2d, 0xf2, 0xf8, 0x00, 0xd1, 0x13, 0x30,
  0x16, 0xf0, 0xfb, 0x02, 0x01, 0x39, 0x19, 0xd4, 0x07, 0xf6, 0x37, 0x0f,
  0xde, 0x0a, 0x11, 0xfe, 0x12, 0x2f, 0xef, 0x24, 0xb9, 0xc7, 0xe0, 0x0d,
  0xfd, 0xd8, 0xbf, 0x19, 0x33, 0x08, 0xeb, 0x05, 0xe5, 0xfd, 0x15, 0xf2,
  0x1e, 0xe4, 0xed, 0x2b, 0xc5, 0x01, 0xf4, 0x19, 0x0b, 0xe2, 0xe8, 0x13,
  0xfd, 0x00, 0xf8, 0xe4, 0xfc, 0xef, 0x2c, 0xf6, 0xd9, 0x09, 0xcb, 0xf0,
  0xf6, 0x00, 0xf9, 0xea, 0xcc, 0xe8, 0xe8, 0xf8, 0xe0, 0xd9, 0x30, 0x27,
  0x05, 0xbb, 0xcd, 0x16, 0x08, 0x16, 0x2a, 0x31, 0xec, 0x1b, 0xf3, 0x12,
  0x19, 0x0c, 0xdd, 0xc2, 0x2b, 0xf3, 0x17, 0x13, 0xf5, 0xf2, 0xdc, 0xd6,
  0xde, 0xca, 0xe4, 0x0c, 0xf9, 0xf4, 0xf5, 0x00, 0xf5, 0x13, 0xc4, 0xf8,
  0xf1, 0x28, 0xe6, 0x2a, 0xc1, 0x18, 0xe3, 0xe4, 0x48, 0x18, 0x10, 0x1f,
  0xd5, 0xe8, 0x45, 0xee, 0x2d, 0xc4, 0xea, 0xea, 0xfe, 0x14, 0x1c, 0x30,
  0xee, 0xcd, 0x07, 0xff, 0xd6, 0x33, 0xff, 0x05, 0x12, 0x10, 0x3c, 0x31,
  0xc9, 0xef, 0xdd, 0xf9, 0xf4, 0xd4, 0xfb, 0xc0, 0x1e, 0xe5, 0x08, 0xc3,
  0x1b, 0x09, 0xef, 0x27, 0x0b, 0x07, 0x0d, 0x16, 0x01, 0xef, 0x17, 0x30,
  0x5b, 0xd0, 0xcd, 0xcb, 0x01, 0x1d, 0xde, 0x38, 0xf0, 0xef, 0x12, 0x26,
  0xef, 0x47, 0xf5, 0x38, 0x40, 0x04, 0x40, 0x32, 0xd4, 0x24, 0x19, 0x13,
  0xf0, 0x4f, 0xd8, 0x0c, 0x24, 0x24, 0x47, 0x09, 0xe0, 0x04, 0xc6, 0xfb,
  0x4a, 0x23, 0x15, 0xdf, 0x25, 0xfd, 0x25, 0xf6, 0x1d, 0xef, 0x1c, 0xd0,
  0xde, 0xfa, 0xc7, 0xc1, 0xdf, 0x02, 0xb1, 0xd7, 0xe3, 0x08, 0xf7, 0x0d,
  0x0b, 0xe1, 0x01, 0xdc, 0xf4, 0x58, 0xe9, 0xda, 0x11, 0x08, 0xff, 0x09,
  0x3b, 0xf1, 0xef, 0x41, 0x42, 0x4f, 0xdc, 0x0e, 0x0f, 0xfb, 0xfb, 0xff,
  0xc8, 0x3d, 0xf7, 0x13, 0xb1, 0xf4, 0x15, 0x08, 0xce, 0x10, 0xce, 0x2f,
  0x05, 0xea, 0xed, 0xe1, 0xe2, 0x1d, 0xd0, 0xdc, 0xc5, 0x36, 0xfb, 0xd5,
  0x15, 0xeb, 0xf8, 0xf0, 0x15, 0xbe, 0x0a, 0x0b, 0x06, 0xd6, 0xf0, 0xeb,
  0xcf, 0x25, 0xd8, 0xea, 0xe5, 0xe1, 0x06, 0x06, 0xdc, 0xf2, 0xb5, 0x25,
  0xd3, 0xd6, 0x06, 0x03, 0xb9, 0x2b, 0xd4, 0xb2, 0x14, 0x15, 0xf7, 0xe7,
  0x45, 0xd2, 0x14, 0xfd, 0xeb, 0x14, 0xd9, 0xfc, 0x0f, 0xf4, 0x29, 0x4d,
  0x04, 0x15, 0x0e, 0xfc, 0xfd, 0x2a, 0x09, 0x17, 0x28, 0x1b, 0x26, 0x21,
  0x24, 0x32, 0x1a, 0x02, 0xf5, 0xe3, 0x1c, 0x0f, 0xc8, 0xfc, 0xe9, 0xf3,
  0xf9, 0x04, 0x13, 0xd1, 0x2e, 0x2d, 0x0f, 0x01, 0x37, 0x02, 0x11, 0x2f,
  0x35, 0xff, 0x09, 0xfe, 0xf4, 0x3d, 0xfd, 0xd0, 0x05, 0xf4, 0xd9, 0x22,
  0xe5, 0xe9, 0x20, 0xc9, 0xe1, 0x2e, 0xfb, 0xd1, 0x17, 0xea, 0xfb, 0xc8,
  0x06, 0x02, 0xdb, 0xce, 0xae, 0xbb, 0x27, 0xcd, 0x16, 0xf2, 0xaa, 0xb4,
  0xf1, 0xbb, 0xcd, 0x4d, 0xaf, 0x0c, 0x50, 0xe3, 0x34, 0x2c, 0xca, 0x0a,
  0x3f, 0xd6, 0xd0, 0x0f, 0xe8, 0xd7, 0x25, 0x27, 0xce, 0xe8, 0x27, 0x04,
  0xff, 0x2b, 0xe7, 0xdd, 0xc9, 0xf6, 0x0b, 0xf9, 0x01, 0x26, 0xdc, 0xf4,
  0xf8, 0xe1, 0xdf, 0x25, 0xec, 0x2e, 0xd7, 0xef, 0xe8, 0x28, 0x1c, 0xdb,
  0xf9, 0xe9, 0x2c, 0xda, 0x06, 0x05, 0x4a, 0xf3, 0xfd, 0x21, 0xfb, 0x37,
  0x27, 0xee, 0x1c, 0x2d, 0x24, 0x06, 0xb7, 0x12, 0x35, 0xe2, 0x00, 0x17,
  0x24, 0x38, 0xf8, 0x01, 0x09, 0xe1, 0xef, 0xd6, 0x11, 0xea, 0x30, 0x00,
  0x27, 0xbb, 0xcf, 0x28, 0xd1, 0xc5, 0xcc, 0xd7, 0x0c, 0x00, 0xdb, 0xe6,
  0xd7, 0x20, 0x22, 0xf5, 0x08, 0xf7, 0x06, 0x0d, 0xde, 0xe0, 0xfd, 0x09,
  0x10, 0x19, 0xb3, 0xed, 0xe2, 0xf9, 0xfb, 0x03, 0x12, 0x19, 0xaf, 0x05,
  0xf5, 0xe9, 0xe4, 0x12, 0xd0, 0x39, 0xf8, 0xf2, 0x13, 0xf8, 0xf1, 0xea,
  0x5e, 0x16, 0x10, 0x00, 0xa7, 0x19, 0xe6, 0x46, 0x02, 0x06, 0x1e, 0x30,
  0xdc, 0xda, 0xfd, 0x16, 0x0c, 0xe6, 0x0e, 0xcc, 0x00, 0x0b, 0xf1, 0x15,
  0xfa, 0x2b, 0x29, 0xf2, 0xbf, 0xea, 0x0f, 0x2f, 0xe7, 0x28, 0x46, 0xf2,
  0x14, 0x2c, 0x28, 0xda, 0xf1, 0xd1, 0x2d, 0x07, 0x1f, 0x34, 0xf7, 0x11,
  0xf3, 0xff, 0x10, 0x03, 0x10, 0x47, 0xc1, 0x07, 0x34, 0xf7, 0xe1, 0xdc,
  0xf5, 0xe5, 0x0c, 0xe8, 0x2a, 0xe5, 0x37, 0x13, 0x0f, 0x12, 0xeb, 0xfe,
  0xdc, 0xc9, 0xe6, 0x1b, 0xe6, 0x17, 0xfb, 0xf3, 0xea, 0x1d, 0x18, 0x1d,
  0x35, 0x2a, 0xfb, 0x28, 0xed, 0x36, 0x01, 0xf7, 0xea, 0xe9, 0xea, 0x51,
  0x03, 0x09, 0xe0, 0x1b, 0x3b, 0x35, 0x15, 0xe2, 0xd9, 0xe9, 0x1f, 0xd0,
  0x25, 0xbf, 0xec, 0xf4, 0x2c, 0xd8, 0x1c, 0xe4, 0x04, 0x1c, 0xdd, 0xd1,
  0xf5, 0x41, 0xe0, 0xee, 0xfd, 0xd8, 0xb9, 0x1b, 0x0f, 0xf8, 0x17, 0xc8,
  0xd3, 0xc9, 0xf0, 0xf1, 0xd8, 0x14, 0xf2, 0xe5, 0x28, 0xcf, 0xe2, 0x09,
  0xf5, 0x3b, 0x1a, 0x15, 0x20, 0x20, 0xf7, 0xb8, 0x0c, 0xc1, 0xe1, 0xf3,
  0x26, 0x27, 0xf8, 0x1a, 0xc7, 0x0a, 0xd2, 0xff, 0xbd, 0x02, 0x02, 0xf5,
  0xfc, 0xbc, 0xda, 0x0a, 0xed, 0x25, 0xf5, 0x1d, 0x14, 0xd2, 0x17, 0xea,
  0xed, 0x29, 0x13, 0x07, 0xfb, 0xb9, 0xde, 0x25, 0x00, 0xf1, 0x0f, 0xe5,
  0xd0, 0x0b, 0xc3, 0xeb, 0x25, 0xba, 0xd2, 0x4b, 0x01, 0xce, 0x00, 0x71,
  0xd2, 0x1e, 0xef, 0x35, 0xf8, 0x35, 0xe9, 0x05, 0xee, 0xb2, 0x04, 0xdc,
  0x1d, 0x32, 0x1d, 0x20, 0x05, 0xea, 0xde, 0xc9, 0xef, 0xf6, 0xbf, 0xd8,
  0x19, 0x2d, 0x20, 0x23, 0xf4, 0xef, 0xf6, 0x20, 0xfc, 0xfc, 0x0e, 0x0e,
  0x4b, 0xc8, 0x0a, 0x0c, 0x2e, 0xf2, 0x2b, 0xd9, 0x04, 0x10, 0x1a, 0xf1,
  0x28, 0x01, 0x14, 0xf0, 0x0a, 0xf1, 0x44, 0x03, 0x08, 0x1e, 0x33, 0xef,
  0xf3, 0x4c, 0xeb, 0xd9, 0x4d, 0x42, 0x1a, 0xf4, 0x08, 0xc2, 0x15, 0xff,
  0x55, 0x2c, 0xe5, 0xfe, 0x07, 0x29, 0x04, 0x19, 0xbc, 0xc2, 0x25, 0x36,
  0xda, 0xdb, 0xfa, 0xde, 0x11, 0xfc, 0x21, 0x15, 0xe8, 0xc2, 0xf8, 0x2d,
  0x12, 0x10, 0xea, 0x08, 0x0e, 0x14, 0x25, 0x27, 0xfe, 0x04, 0x0d, 0x22,
  0xf7, 0x19, 0xee, 0x1b, 0xed, 0x13, 0x0e, 0xe5, 0x17, 0xfa, 0xd6, 0xd3,
  0x0c, 0xf9, 0xf5, 0xd4, 0x16, 0x16, 0xe5, 0x29, 0xf0, 0xe2, 0xfc, 0xdc,
  0x05, 0xcc, 0xf7, 0x0b, 0x04, 0x40, 0xfc, 0xe3, 0x10, 0xf6, 0x16, 0xf1,
  0xef, 0x2e, 0x0a, 0x20, 0xea, 0xf2, 0x01, 0x23, 0xd4, 0x2f, 0x0e, 0xdc,
  0xb8, 0x0d, 0xea, 0x0d, 0x3c, 0x05, 0x04, 0xf4, 0x03, 0xf3, 0xde, 0xf2,
  0x00, 0x2d, 0xf2, 0x34, 0xfb, 0xbe, 0xf4, 0x0f, 0x18, 0x09, 0x0e, 0x25,
  0xfc, 0x02, 0x1d, 0x3b, 0x03, 0x05, 0xbe, 0xe6, 0xe1, 0xc6, 0xc8, 0xf2,
  0x1e, 0xb8, 0xfe, 0xf3, 0x0c, 0x08, 0xed, 0xe6, 0xe5, 0xe3, 0x09, 0x28,
  0xf0, 0xfa, 0xf6, 0x0b, 0x2d, 0x0d, 0x32, 0xfc, 0x42, 0x07, 0x07, 0xdd,
  0xeb, 0xf0, 0x12, 0x0a, 0xee, 0x02, 0x02, 0x0b, 0x01, 0xea, 0x3b, 0x0a,
  0xef, 0xf1, 0x3b, 0x08, 0x30, 0x06, 0x1d, 0x10, 0xf4, 0x08, 0x27, 0xfa,
  0x05, 0xea, 0x03, 0xe4, 0xef, 0xd1, 0x04, 0x06, 0x37, 0xe0, 0x11, 0x1c,
  0xfa, 0x09, 0xb5, 0xff, 0xfd, 0x3b, 0x01, 0x02, 0x4d, 0x1c, 0x05, 0x16,
  0x2b, 0x27, 0xf7, 0x31, 0xe3, 0xe1, 0xf5, 0xd5, 0xe1, 0x10, 0x1c, 0xba,
  0x18, 0x17, 0x0d, 0x03, 0xdb, 0xfa, 0x0b, 0xeb, 0x0f, 0x11, 0x2e, 0x0c,
  0xf8, 0x19, 0x35, 0x2b, 0xf0, 0x30, 0x01, 0x40, 0x09, 0xff, 0xd3, 0xd5,
  0xe2, 0xdd, 0x17, 0xf7, 0xf8, 0x14, 0xf1, 0x3a, 0xf7, 0xfc, 0x35, 0x33,
  0x1c, 0x36, 0xfa, 0xd5, 0x05, 0x3e, 0xef, 0xe8, 0x0d, 0xfa, 0x1d, 0xd6,
  0x44, 0xd4, 0x1f, 0x27, 0xd3, 0x2d, 0x08, 0x20, 0x3e, 0xdc, 0xfc, 0xea,
  0x0a, 0x07, 0x4c, 0xf6, 0x2c, 0xdc, 0xfc, 0x1a, 0x0f, 0x00, 0x10, 0xac,
  0xeb, 0xf0, 0xf1, 0x0a, 0xbb, 0x07, 0xf4, 0xf2, 0xfb, 0xf6, 0x14, 0x22,
  0xea, 0x05, 0xdb, 0x0a, 0xf2, 0x37, 0xf4, 0xca, 0xfa, 0xfe, 0xc9, 0x52,
  0x43, 0x00, 0x29, 0xc7, 0x0a, 0x29, 0x0c, 0xe9, 0x25, 0xfd, 0xff, 0x0f,
  0xc3, 0x24, 0xd9, 0x04, 0x1d, 0xd0, 0xaa, 0x3c, 0x4b, 0x0a, 0xc8, 0x05,
  0xac, 0x03, 0x2c, 0x05, 0x23, 0x08, 0xc5, 0xd5, 0x17, 0x16, 0x49, 0x22,
  0xfe, 0x47, 0x1c, 0x0f, 0x31, 0x17, 0xf0, 0xd8, 0xed, 0x2b, 0x00, 0xf4,
  0xd7, 0xfa, 0xef, 0xef, 0x19, 0x11, 0x9d, 0x0f, 0x0d, 0x24, 0xe8, 0xed,
  0xc6, 0xc2, 0xf9, 0xbc, 0x0d, 0xe5, 0xb0, 0xee, 0xd2, 0xc4, 0xf8, 0xa5,
  0x34, 0x35, 0xd6, 0xe8, 0xea, 0x13, 0x29, 0x0f, 0x17, 0x29, 0xc5, 0x2d,
  0x33, 0xe0, 0x29, 0xfe, 0x3c, 0x0d, 0x14, 0xe2, 0xc7, 0x20, 0xfc, 0x42,
  0x12, 0x47, 0xed, 0xc8, 0xfe, 0x0f, 0xf8, 0x0b, 0x01, 0xec, 0xe4, 0x21,
  0xd1, 0xed, 0x3e, 0x01, 0x27, 0x2c, 0xd5, 0xed, 0xb8, 0x0a, 0x0e, 0xc5,
  0xbf, 0x0f, 0x1e, 0x0d, 0xe3, 0x12, 0xf2, 0xcc, 0x32, 0x04, 0x1b, 0xf4,
  0xee, 0x1d, 0xe0, 0x06, 0xf3, 0xef, 0x1b, 0xeb, 0xfa, 0x22, 0x17, 0x29,
  0xde, 0xdf, 0x2a, 0x2c, 0xf3, 0x10, 0xda, 0x1a, 0xec, 0xd5, 0xd0, 0xe3,
  0xf0, 0xe4, 0x09, 0xd8, 0x09, 0xc8, 0xc6, 0xee, 0x1f, 0xdb, 0x11, 0xda,
  0xf0, 0xcb, 0x0d, 0x4c, 0xcb, 0xf6, 0x14, 0x19, 0xcc, 0x06, 0xf8, 0x22,
  0xf0, 0xe1, 0x1a, 0x15, 0xef, 0x46, 0xee, 0x10, 0x03, 0xd3, 0xba, 0x25,
  0xdc, 0x1e, 0x04, 0xfe, 0x0b, 0x09, 0xf6, 0x28, 0x27, 0xe1, 0x00, 0x39,
  0x27, 0x20, 0xfb, 0xfc, 0x00, 0xef, 0x08, 0x29, 0x0b, 0x12, 0x35, 0x22,
  0x02, 0xf4, 0x1c, 0x10, 0x16, 0xb3, 0x0c, 0xe2, 0xcb, 0xc8, 0x2b, 0x2f,
  0xeb, 0x30, 0xda, 0xc9, 0x23, 0x1e, 0xe3, 0x40, 0xd8, 0xd0, 0xf4, 0xf2,
  0xef, 0xdb, 0xbc, 0x1d, 0xf9, 0x06, 0xd3, 0xbc, 0xfb, 0x20, 0x1c, 0xf9,
  0x2d, 0x0f, 0x29, 0xec, 0x07, 0x47, 0xff, 0x0c, 0x16, 0xef, 0x4b, 0xc1,
  0x07, 0x0a, 0x30, 0x16, 0xe3, 0xf7, 0xec, 0x26, 0xeb, 0x1d, 0x1a, 0x07,
  0xf5, 0xb9, 0xd0, 0xfd, 0x12, 0xfb, 0x3a, 0x20, 0xfa, 0x2d, 0x4b, 0xf3,
  0xdc, 0x03, 0x0e, 0xcc, 0x1c, 0x25, 0x12, 0x2f, 0x48, 0xc6, 0xef, 0x17,
  0x2c, 0xfd, 0x01, 0x00, 0x2e, 0xdf, 0x12, 0xba, 0xfe, 0x2a, 0x0f, 0xdf,
  0xfc, 0xf2, 0xe8, 0xf2, 0x56, 0xd4, 0xd9, 0xf4, 0x4c, 0xbd, 0x3f, 0xdd,
  0xe8, 0xbe, 0x06, 0x2d, 0x39, 0xde, 0xd5, 0xb9, 0x24, 0xe4, 0xf1, 0xec,
  0x10, 0xf0, 0x22, 0x35, 0xfb, 0x10, 0xc9, 0xfd, 0xf4, 0x47, 0x32, 0x1b,
  0xef, 0xea, 0xd1, 0x24, 0x46, 0xf1, 0xc7, 0xf1, 0xfc, 0xee, 0xd3, 0x2a,
  0xe5, 0xdd, 0x09, 0xe2, 0xe8, 0x0c, 0x14, 0xb7, 0x06, 0x06, 0xdc, 0xea,
  0xdc, 0xd9, 0xd7, 0x0e, 0xfb, 0xfa, 0xd1, 0x05, 0xd4, 0x27, 0xc0, 0x0c,
  0xee, 0xe3, 0x2c, 0x12, 0x25, 0xd1, 0x04, 0x0e, 0xf0, 0x3b, 0xe3, 0xed,
  0x10, 0x29, 0xdc, 0xd1, 0xef, 0x24, 0x11, 0x1b, 0x19, 0xf9, 0x17, 0x20,
  0xed, 0x1d, 0x29, 0xe8, 0xf4, 0xeb, 0xc0, 0x27, 0xf5, 0xe0, 0x2f, 0x0e,
  0xf8, 0x20, 0x32, 0xe5, 0x06, 0xca, 0x01, 0x2d, 0x0d, 0xf6, 0x45, 0x22,
  0x01, 0x38, 0xf3, 0xe2, 0x0c, 0xee, 0x12, 0xd7, 0xde, 0xd0, 0xf7, 0xfe,
  0xeb, 0xee, 0xd3, 0x07, 0xfd, 0x00, 0x0e, 0x00, 0x22, 0x09, 0x0b, 0x17,
  0xe8, 0x13, 0x10, 0xf9, 0xd0, 0xfa, 0xff, 0xff, 0xd4, 0xfa, 0xff, 0xff,
  0x0a, 0xfb, 0xff, 0xff, 0x04, 0x00, 0x00, 0x00, 0xee, 0x02, 0x00, 0x00,
  0xfd, 0x3d, 0x32, 0xf6, 0xff, 0xd7, 0xff, 0xbf, 0x1d, 0xe1, 0x37, 0x32,
  0x4e, 0x43, 0x0b, 0xf3, 0x14, 0x0d, 0xbc, 0x50, 0x09, 0x18, 0xfa, 0xd6,
  0xe7, 0xc0, 0xf9, 0xf7, 0x45, 0x1e, 0xc8, 0x0d, 0x14, 0x01, 0xf9, 0xc9,
  0xdb, 0xff, 0x26, 0x0b, 0xbd, 0xe0, 0xf8, 0x3c, 0xeb, 0x0a, 0xbf, 0x2f,
  0x11, 0xca, 0xb4, 0xf3, 0xfa, 0x0f, 0x23, 0xc9, 0xfe, 0xee, 0xd3, 0x02,
  0xce, 0x45, 0xd2, 0xcf, 0xb1, 0x1c, 0x31, 0x0c, 0x32, 0xe3, 0xcb, 0x13,
  0x26, 0xb6, 0x57, 0x31, 0x1e, 0xc1, 0x15, 0xe9, 0x31, 0xe4, 0xf1, 0x07,
  0x41, 0x40, 0x16, 0x36, 0x06, 0xe5, 0xfa, 0x34, 0xe1, 0x17, 0xf8, 0xf5,
  0x5b, 0xe8, 0xef, 0xf5, 0xfc, 0x06, 0x65, 0xe7, 0x41, 0x21, 0xe8, 0x2f,
  0x08, 0x2d, 0xf5, 0x4e, 0x0e, 0xd8, 0x1a, 0x0a, 0x4f, 0xfc, 0x08, 0xfc,
  0xe2, 0xbc, 0xdc, 0x2c, 0xae, 0xd2, 0x24, 0x52, 0xf4, 0xf0, 0xdd, 0x4a,
  0xea, 0x2e, 0xdf, 0x1a, 0x25, 0xec, 0x21, 0x0d, 0x4b, 0x12, 0xc7, 0x30,
  0x0d, 0xb0, 0xdf, 0xf0, 0x41, 0x26, 0x0a, 0x40, 0x09, 0x33, 0x5e, 0xda,
  0x22, 0xcf, 0x08, 0xd1, 0x3e, 0xe1, 0x35, 0x15, 0x00, 0xd9, 0x0b, 0x32,
  0x2f, 0xe7, 0x18, 0x44, 0x4c, 0xc8, 0x3f, 0x28, 0xdb, 0xfb, 0x36, 0x13,
  0xe7, 0xe4, 0x04, 0x26, 0x43, 0xce, 0x27, 0xd5, 0xde, 0xc5, 0xdd, 0x0b,
  0x1a, 0x1e, 0x4e, 0xdc, 0x08, 0x54, 0xd2, 0xc0, 0x2c, 0xd8, 0x0a, 0x26,
  0x3f, 0xec, 0xc8, 0xfc, 0xdf, 0x20, 0x3a, 0x08, 0x3a, 0x2c, 0xc9, 0xc5,
  0xf5, 0x60, 0x27, 0x22, 0xb2, 0x48, 0x18, 0x4c, 0xfc, 0xe4, 0x36, 0x05,
  0xc8, 0x1b, 0xcc, 0x23, 0xfd, 0x2b, 0xfd, 0xc5, 0xe6, 0x17, 0x09, 0x23,
  0xf6, 0x16, 0xc6, 0x3b, 0xc0, 0x21, 0xdd, 0xd2, 0x40, 0x13, 0xfe, 0x02,
  0x29, 0x41, 0x23, 0x15, 0x05, 0xf6, 0xa1, 0xe2, 0xe8, 0x40, 0x28, 0xef,
  0x10, 0x3c, 0xba, 0x23, 0xf5, 0x3f, 0xc8, 0x3d, 0x41, 0x11, 0xe3, 0xd0,
  0x18, 0x43, 0xc7, 0x00, 0xea, 0x38, 0xd7, 0x3a, 0x2d, 0x0c, 0xde, 0xf2,
  0xe9, 0x28, 0x33, 0xd8, 0x12, 0x45, 0x0e, 0x17, 0xd1, 0x1a, 0xcd, 0xfe,
  0xcd, 0xda, 0xef, 0xab, 0xf9, 0xd7, 0x0d, 0x35, 0x28, 0x10, 0xe2, 0x20,
  0xd3, 0xe1, 0x16, 0xbe, 0x33, 0x03, 0xfb, 0x25, 0x37, 0x05, 0xef, 0xdd,
  0xc8, 0xea, 0x17, 0x28, 0xb6, 0xea, 0xba, 0xe6, 0xe8, 0x03, 0xe6, 0x33,
  0xd9, 0x2c, 0xd8, 0xf7, 0x46, 0xfb, 0x12, 0xf5, 0xed, 0xe0, 0x17, 0xc3,
  0x33, 0x52, 0x5c, 0x24, 0xb0, 0x06, 0x7a, 0x17, 0x22, 0xc7, 0xfb, 0x20,
  0xda, 0xb9, 0x02, 0xcf, 0x66, 0xdf, 0xe5, 0xe2, 0x32, 0xec, 0x61, 0xb9,
  0x02, 0x04, 0x45, 0x62, 0xe8, 0xf7, 0x0d, 0x63, 0x7f, 0xd4, 0xdd, 0xad,
  0x2a, 0x58, 0xbd, 0xb3, 0xab, 0x1d, 0xe8, 0x2a, 0x0f, 0xe2, 0xe6, 0x20,
  0x5c, 0xd3, 0x00, 0x12, 0x45, 0xbe, 0x5b, 0x28, 0x0a, 0x5f, 0xfc, 0x27,
  0xa8, 0x31, 0xa4, 0x24, 0xf8, 0xf9, 0xcd, 0x08, 0x09, 0x10, 0xdd, 0xf9,
  0xd2, 0x00, 0x1d, 0xf6, 0xfa, 0x57, 0xbf, 0x2f, 0xd6, 0xf3, 0xf9, 0x29,
  0x20, 0x3c, 0xce, 0xfe, 0xf6, 0x36, 0x14, 0xd1, 0x36, 0x57, 0xed, 0x30,
  0xf9, 0xe9, 0x0a, 0x18, 0xc9, 0xd0, 0x29, 0x38, 0xea, 0x4d, 0xfc, 0x30,
  0xf8, 0xcf, 0x05, 0x26, 0x0b, 0xea, 0xfd, 0xf9, 0xc7, 0xcd, 0xc8, 0xf8,
  0x39, 0xef, 0xf6, 0x24, 0xc3, 0xdd, 0x1d, 0x5b, 0xed, 0x33, 0xe5, 0xca,
  0x1b, 0xe3, 0x04, 0xd7, 0x3c, 0x01, 0xb7, 0xff, 0xc9, 0xc8, 0xf8, 0xc4,
  0x04, 0x1b, 0xff, 0x1d, 0x26, 0x38, 0x13, 0xef, 0x25, 0xf4, 0xf1, 0x2e,
  0x13, 0xfc, 0x24, 0x07, 0x31, 0xda, 0xd0, 0x05, 0xf8, 0xd3, 0x0b, 0xe9,
  0x18, 0x51, 0xd8, 0x01, 0x5f, 0xea, 0xe9, 0x01, 0x4e, 0x09, 0xce, 0xca,
  0x1d, 0x24, 0x17, 0x14, 0xfd, 0x58, 0x29, 0x1b, 0xb3, 0xdc, 0x3a, 0x01,
  0x03, 0xd9, 0x55, 0xb2, 0x28, 0x20, 0x0b, 0xe1, 0x0d, 0xa9, 0x21, 0xf7,
  0x13, 0x33, 0xca, 0x3f, 0xdd, 0xe4, 0xf8, 0xad, 0xf7, 0xf4, 0x16, 0xd5,
  0xfe, 0xaf, 0xd2, 0x0e, 0x25, 0xfc, 0x04, 0x1c, 0xc9, 0xdb, 0xe1, 0xe0,
  0x10, 0xe7, 0x15, 0xe2, 0xe8, 0xcd, 0xfb, 0xf7, 0x05, 0xf8, 0xd9, 0xf7,
  0xd7, 0x08, 0x1a, 0xcf, 0xe4, 0x1a, 0xe7, 0x0c, 0x30, 0xcd, 0x1f, 0x10,
  0x1f, 0x23, 0x34, 0xe1, 0xcb, 0x18, 0x1f, 0x50, 0x52, 0x6f, 0xd9, 0x46,
  0x11, 0xab, 0x36, 0x2f, 0xee, 0x1d, 0xfa, 0x01, 0x17, 0x2c, 0xee, 0x5e,
  0xda, 0x0d, 0x11, 0xe4, 0x37, 0xdb, 0x35, 0x0a, 0x36, 0x0c, 0xc8, 0x1b,
  0x12, 0x30, 0x1c, 0x29, 0x42, 0x57, 0xf7, 0xd6, 0x22, 0xe6, 0xf3, 0xdc,
  0xc6, 0x01, 0x00, 0xdd, 0x48, 0xd3, 0x3f, 0xee, 0xd2, 0x32, 0xb0, 0xf1,
  0x03, 0x2d, 0xe8, 0x07, 0x16, 0x21, 0xd2, 0xdf, 0xe6, 0x61, 0xc7, 0x18,
  0x12, 0xd8, 0xfb, 0xeb, 0x22, 0x32, 0x03, 0xfa, 0xee, 0xf3, 0xfc, 0x1d,
  0xc2, 0xf0, 0xf6, 0xf3, 0x31, 0x47, 0x29, 0x1c, 0xff, 0x6b, 0xeb, 0xee,
  0xd7, 0x07, 0x64, 0xea, 0x08, 0xef, 0xe8, 0x4a, 0x3d, 0xfa, 0x30, 0x31,
  0x13, 0xec, 0x33, 0xf5, 0xc8, 0xda, 0x41, 0xe9, 0x12, 0xda, 0x06, 0xa6,
  0x22, 0x07, 0xe6, 0xe0, 0x1d, 0x21, 0xf9, 0x50, 0x11, 0x1e, 0x25, 0x00,
  0x17, 0xdf, 0x53, 0x05, 0x0b, 0xee, 0x1f, 0x29, 0x32, 0xf3, 0x18, 0xe9,
  0xc8, 0x0a, 0x15, 0xea, 0xd9, 0x4a, 0x00, 0x00, 0xd4, 0xfd, 0xff, 0xff,
  0x0a, 0xfe, 0xff, 0xff, 0x04, 0x00, 0x00, 0x00, 0xc8, 0x00, 0x00, 0x00,
  0xbf, 0x14, 0x00, 0x00, 0x62, 0x0d, 0x00, 0x00, 0x80, 0x0d, 0x00, 0x00,
  0x1c, 0x03, 0x00, 0x00, 0x41, 0x22, 0x00, 0x00, 0xb9, 0x0b, 0x00, 0x00,
  0x99, 0x0b, 0x00, 0x00, 0x96, 0x07, 0x00, 0x00, 0x6e, 0xfe, 0xff, 0xff,
  0x10, 0x0a, 0x00, 0x00, 0xb6, 0xfa, 0xff, 0xff, 0x3e, 0x14, 0x00, 0x00,
  0x87, 0xef, 0xff, 0xff, 0x09, 0xf7, 0xff, 0xff, 0xab, 0x0f, 0x00, 0x00,
  0x11, 0x04, 0x00, 0x00, 0x94, 0xf6, 0xff, 0xff, 0x45, 0x08, 0x00, 0x00,
  0xa1, 0x0e, 0x00, 0x00, 0x0c, 0x06, 0x00, 0x00, 0x56, 0x0e, 0x00, 0x00,
  0x6c, 0xf7, 0xff, 0xff, 0xdb, 0xfa, 0xff, 0xff, 0x08, 0x06, 0x00, 0x00,
  0xbc, 0x18, 0x00, 0x00, 0xfe, 0x21, 0x00, 0x00, 0xe8, 0x03, 0x00, 0x00,
  0xea, 0x0b, 0x00, 0x00, 0xfe, 0xfc, 0xff, 0xff, 0x67, 0x0c, 0x00, 0x00,
  0x68, 0x0f, 0x00, 0x00, 0xe0, 0xf8, 0xff, 0xff, 0x93, 0x02, 0x00, 0x00,
  0x9c, 0x0e, 0x00, 0x00, 0xab, 0x10, 0x00, 0x00, 0x0d, 0x16, 0x00, 0x00,
  0x53, 0xfe, 0xff, 0xff, 0xfe, 0x05, 0x00, 0x00, 0x43, 0x0a, 0x00, 0x00,
  0x75, 0x02, 0x00, 0x00, 0x50, 0x10, 0x00, 0x00, 0x87, 0x02, 0x00, 0x00,
  0x63, 0x07, 0x00, 0x00, 0x74, 0x15, 0x00, 0x00, 0x8e, 0xf5, 0xff, 0xff,
  0x71, 0x01, 0x00, 0x00, 0x49, 0x03, 0x00, 0x00, 0xe7, 0xfd, 0xff, 0xff,
  0x5d, 0x0e, 0x00, 0x00, 0x25, 0xfd, 0xff, 0xff, 0xde, 0xfe, 0xff, 0xff,
  0x04, 0x00, 0x00, 0x00, 0x3c, 0x00, 0x00, 0x00, 0x3f, 0x07, 0x00, 0x00,
  0x99, 0xfe, 0xff, 0xff, 0x08, 0x10, 0x00, 0x00, 0xc2, 0x0c, 0x00, 0x00,
  0x3f, 0x06, 0x00, 0x00, 0xbc, 0x04, 0x00, 0x00, 0xbb, 0xfe, 0xff, 0xff,
  0x20, 0x1a, 0x00, 0x00, 0x00, 0x05, 0x00, 0x00, 0xd6, 0x16, 0x00, 0x00,
  0xae, 0x0f, 0x00, 0x00, 0xf0, 0xfc, 0xff, 0xff, 0xf5, 0xfe, 0xff, 0xff,
  0xbf, 0x0c, 0x00, 0x00, 0xa8, 0x09, 0x00, 0x00, 0x26, 0xff, 0xff, 0xff,
  0x04, 0x00, 0x00, 0x00, 0x1e, 0x00, 0x00, 0x00, 0x18, 0xe1, 0x47, 0xdc,
  0x05, 0xf1, 0x04, 0x81, 0x29, 0xda, 0x0c, 0xdc, 0x44, 0x34, 0x09, 0xc9,
  0xfb, 0xd1, 0x11, 0xc9, 0xc2, 0xfc, 0x72, 0xd4, 0x5c, 0x47, 0xd3, 0xd4,
  0xa0, 0x3c, 0x00, 0x00, 0x52, 0xff, 0xff, 0xff, 0x04, 0x00, 0x00, 0x00,
  0x08, 0x00, 0x00, 0x00, 0xb1, 0xfe, 0xff, 0xff, 0x4f, 0x01, 0x00, 0x00,
  0x34, 0xff, 0xff, 0xff, 0x0f, 0x00, 0x00, 0x00, 0x54, 0x4f, 0x43, 0x4f,
  0x20, 0x43, 0x6f, 0x6e, 0x76, 0x65, 0x72, 0x74, 0x65, 0x64, 0x2e, 0x00,
  0x01, 0x00, 0x00, 0x00, 0x04, 0x00, 0x00, 0x00, 0x00, 0xf9, 0xff, 0xff,
  0x94, 0x01, 0x00, 0x00, 0x88, 0x01, 0x00, 0x00, 0x7c, 0x01, 0x00, 0x00,
  0x04, 0x00, 0x00, 0x00, 0x06, 0x00, 0x00, 0x00, 0x50, 0x01, 0x00, 0x00,
  0x04, 0x01, 0x00, 0x00, 0xbc, 0x00, 0x00, 0x00, 0x74, 0x00, 0x00, 0x00,
  0x38, 0x00, 0x00, 0x00, 0x04, 0x00, 0x00, 0x00, 0xd2, 0xfe, 0xff, 0xff,
  0x03, 0x00, 0x00, 0x00, 0x10, 0x00, 0x00, 0x00, 0x04, 0x00, 0x00, 0x00,
  0x01, 0x00, 0x00, 0x00, 0x0c, 0x00, 0x00, 0x00, 0x01, 0x00, 0x00, 0x00,
  0x00, 0x00, 0x00, 0x00, 0x00, 0x00, 0x0e, 0x00, 0x1a, 0x00, 0x08, 0x00,
  0x0c, 0x00, 0x10, 0x00, 0x07, 0x00, 0x14, 0x00, 0x0e, 0x00, 0x00, 0x00,
  0x00, 0x00, 0x00, 0x09, 0x01, 0x00, 0x00, 0x00, 0x24, 0x00, 0x00, 0x00,
  0x18, 0x00, 0x00, 0x00, 0x0c, 0x00, 0x00, 0x00, 0x00, 0x00, 0x06, 0x00,
  0x08, 0x00, 0x04, 0x00, 0x06, 0x00, 0x00, 0x00, 0x00, 0x00, 0x80, 0x3f,
  0x01, 0x00, 0x00, 0x00, 0x00, 0x00, 0x00, 0x00, 0x01, 0x00, 0x00, 0x00,
  0x08, 0x00, 0x00, 0x00, 0xca, 0xff, 0xff, 0xff, 0x00, 0x00, 0x00, 0x08,
  0x1c, 0x00, 0x00, 0x00, 0x10, 0x00, 0x00, 0x00, 0x08, 0x00, 0x00, 0x00,
  0x04, 0x00, 0x04, 0x00, 0x04, 0x00, 0x00, 0x00, 0x01, 0x00, 0x00, 0x00,
  0x08, 0x00, 0x00, 0x00, 0x03, 0x00, 0x00, 0x00, 0x07, 0x00, 0x00, 0x00,
  0x09, 0x00, 0x00, 0x00, 0x0a, 0x00, 0x00, 0x00, 0x00, 0x00, 0x0e, 0x00,
  0x14, 0x00, 0x00, 0x00, 0x08, 0x00, 0x0c, 0x00, 0x07, 0x00, 0x10, 0x00,
  0x0e, 0x00, 0x00, 0x00, 0x00, 0x00, 0x00, 0x08, 0x1c, 0x00, 0x00, 0x00,
  0x10, 0x00, 0x00, 0x00, 0x04, 0x00, 0x00, 0x00, 0xba, 0xff, 0xff, 0xff,
  0x00, 0x00, 0x00, 0x01, 0x01, 0x00, 0x00, 0x00, 0x07, 0x00, 0x00, 0x00,
  0x03, 0x00, 0x00, 0x00, 0x04, 0x00, 0x00, 0x00, 0x05, 0x00, 0x00, 0x00,
  0x06, 0x00, 0x00, 0x00, 0x00, 0x00, 0x0e, 0x00, 0x16, 0x00, 0x00, 0x00,
  0x08, 0x00, 0x0c, 0x00, 0x07, 0x00, 0x10, 0x00, 0x0e, 0x00, 0x00, 0x00,
  0x00, 0x00, 0x00, 0x08, 0x24, 0x00, 0x00, 0x00, 0x18, 0x00, 0x00, 0x00,
  0x0c, 0x00, 0x00, 0x00, 0x00, 0x00, 0x06, 0x00, 0x08, 0x00, 0x07, 0x00,
  0x06, 0x00, 0x00, 0x00, 0x00, 0x00, 0x00, 0x01, 0x01, 0x00, 0x00, 0x00,
  0x04, 0x00, 0x00, 0x00, 0x03, 0x00, 0x00, 0x00, 0x01, 0x00, 0x00, 0x00,
  0x02, 0x00, 0x00, 0x00, 0x03, 0x00, 0x00, 0x00, 0x00, 0x00, 0x0a, 0x00,
  0x10, 0x00, 0x04, 0x00, 0x08, 0x00, 0x0c, 0x00, 0x0a, 0x00, 0x00, 0x00,
  0x02, 0x00, 0x00, 0x00, 0x10, 0x00, 0x00, 0x00, 0x04, 0x00, 0x00, 0x00,
  0x01, 0x00, 0x00, 0x00, 0x01, 0x00, 0x00, 0x00, 0x01, 0x00, 0x00, 0x00,
  0x0b, 0x00, 0x00, 0x00, 0x01, 0x00, 0x00, 0x00, 0x0c, 0x00, 0x00, 0x00,
  0x01, 0x00, 0x00, 0x00, 0x0b, 0x00, 0x00, 0x00, 0x0d, 0x00, 0x00, 0x00,
  0xe4, 0x05, 0x00, 0x00, 0x48, 0x05, 0x00, 0x00, 0xa8, 0x04, 0x00, 0x00,
  0x34, 0x04, 0x00, 0x00, 0xb0, 0x03, 0x00, 0x00, 0x0c, 0x03, 0x00, 0x00,
  0x98, 0x02, 0x00, 0x00, 0x14, 0x02, 0x00, 0x00, 0x88, 0x01, 0x00, 0x00,
  0xe4, 0x00, 0x00, 0x00, 0x70, 0x00, 0x00, 0x00, 0x3c, 0x00, 0x00, 0x00,
  0x04, 0x00, 0x00, 0x00, 0xd8, 0xff, 0xff, 0xff, 0x18, 0x00, 0x00, 0x00,
  0x04, 0x00, 0x00, 0x00, 0x08, 0x00, 0x00, 0x00, 0x49, 0x64, 0x65, 0x6e,
  0x74, 0x69, 0x74, 0x79, 0x00, 0x00, 0x00, 0x00, 0x02, 0x00, 0x00, 0x00,
  0x01, 0x00, 0x00, 0x00, 0x02, 0x00, 0x00, 0x00, 0x0c, 0x00, 0x0c, 0x00,
  0x04, 0x00, 0x00, 0x00, 0x00, 0x00, 0x08, 0x00, 0x0c, 0x00, 0x00, 0x00,
  0x20, 0x00, 0x00, 0x00, 0x04, 0x00, 0x00, 0x00, 0x12, 0x00, 0x00, 0x00,
  0x64, 0x65, 0x6e, 0x73, 0x65, 0x5f, 0x44, 0x65, 0x6e, 0x73, 0x65, 0x31,
  0x5f, 0x69, 0x6e, 0x70, 0x75, 0x74, 0x00, 0x00, 0x02, 0x00, 0x00, 0x00,
  0x01, 0x00, 0x00, 0x00, 0x78, 0x00, 0x00, 0x00, 0xc2, 0xfa, 0xff, 0xff,
  0x00, 0x00, 0x00, 0x02, 0x60, 0x00, 0x00, 0x00, 0x01, 0x00, 0x00, 0x00,
  0x2c, 0x00, 0x00, 0x00, 0x04, 0x00, 0x00, 0x00, 0xb4, 0xfa, 0xff, 0xff,
  0x18, 0x00, 0x00, 0x00, 0x04, 0x00, 0x00, 0x00, 0x01, 0x00, 0x00, 0x00,
  0x00, 0x00, 0x00, 0x00, 0x00, 0x00, 0x00, 0x00, 0x00, 0x00, 0x00, 0x00,
  0x01, 0x00, 0x00, 0x00, 0x4a, 0x63, 0xda, 0x38, 0x25, 0x00, 0x00, 0x00,
  0x73, 0x65, 0x71, 0x75, 0x65, 0x6e, 0x74, 0x69, 0x61, 0x6c, 0x5f, 0x31,
  0x2f, 0x64, 0x65, 0x6e, 0x73, 0x65, 0x5f, 0x44, 0x65, 0x6e, 0x73, 0x65,
  0x33, 0x2f, 0x4d, 0x61, 0x74, 0x4d, 0x75, 0x6c, 0x5f, 0x62, 0x69, 0x61,
  0x73, 0x00, 0x00, 0x00, 0x01, 0x00, 0x00, 0x00, 0x02, 0x00, 0x00, 0x00,
  0x32, 0xfb, 0xff, 0xff, 0x00, 0x00, 0x00, 0x09, 0x8c, 0x00, 0x00, 0x00,
  0x02, 0x00, 0x00, 0x00, 0x44, 0x00, 0x00, 0x00, 0x04, 0x00, 0x00, 0x00,
  0xbc, 0xfb, 0xff, 0xff, 0x30, 0x00, 0x00, 0x00, 0x24, 0x00, 0x00, 0x00,
  0x18, 0x00, 0x00, 0x00, 0x04, 0x00, 0x00, 0x00, 0x01, 0x00, 0x00, 0x00,
  0x00, 0x00, 0x00, 0x00, 0x00, 0x00, 0x00, 0x00, 0x00, 0x00, 0x00, 0x00,
  0x01, 0x00, 0x00, 0x00, 0xf6, 0x99, 0x00, 0x3c, 0x01, 0x00, 0x00, 0x00,
  0x40, 0x3d, 0x65, 0x3f, 0x01, 0x00, 0x00, 0x00, 0x85, 0x31, 0x7f, 0xbf,
  0x39, 0x00, 0x00, 0x00, 0x73, 0x65, 0x71, 0x75, 0x65, 0x6e, 0x74, 0x69,
  0x61, 0x6c, 0x5f, 0x31, 0x2f, 0x64, 0x65, 0x6e, 0x73, 0x65, 0x5f, 0x44,
  0x65, 0x6e, 0x73, 0x65, 0x33, 0x2f, 0x4d, 0x61, 0x74, 0x4d, 0x75, 0x6c,
  0x2f, 0x52, 0x65, 0x61, 0x64, 0x56, 0x61, 0x72, 0x69, 0x61, 0x62, 0x6c,
  0x65, 0x4f, 0x70, 0x2f, 0x74, 0x72, 0x61, 0x6e, 0x73, 0x70, 0x6f, 0x73,
  0x65, 0x00, 0x00, 0x00, 0x02, 0x00, 0x00, 0x00, 0x02, 0x00, 0x00, 0x00,
  0x0f, 0x00, 0x00, 0x00, 0xd2, 0xfb, 0xff, 0xff, 0x00, 0x00, 0x00, 0x09,
  0x74, 0x00, 0x00, 0x00, 0x0b, 0x00, 0x00, 0x00, 0x44, 0x00, 0x00, 0x00,
  0x04, 0x00, 0x00, 0x00, 0x5c, 0xfc, 0xff, 0xff, 0x30, 0x00, 0x00, 0x00,
  0x24, 0x00, 0x00, 0x00, 0x18, 0x00, 0x00, 0x00, 0x04, 0x00, 0x00, 0x00,
  0x01, 0x00, 0x00, 0x00, 0x0b, 0x00, 0x00, 0x00, 0x00, 0x00, 0x00, 0x00,
  0x00, 0x00, 0x00, 0x00, 0x01, 0x00, 0x00, 0x00, 0x93, 0x11, 0x3b, 0x3d,
  0x01, 0x00, 0x00, 0x00, 0xf7, 0x2c, 0xa9, 0x40, 0x01, 0x00, 0x00, 0x00,
  0x0b, 0x80, 0xcb, 0xc0, 0x21, 0x00, 0x00, 0x00, 0x73, 0x65, 0x71, 0x75,
  0x65, 0x6e, 0x74, 0x69, 0x61, 0x6c, 0x5f, 0x31, 0x2f, 0x64, 0x65, 0x6e,
  0x73, 0x65, 0x5f, 0x44, 0x65, 0x6e, 0x73, 0x65, 0x33, 0x2f, 0x42, 0x69,
  0x61, 0x73, 0x41, 0x64, 0x64, 0x00, 0x00, 0x00, 0x02, 0x00, 0x00, 0x00,
  0x01, 0x00, 0x00, 0x00, 0x02, 0x00, 0x00, 0x00, 0x5a, 0xfc, 0xff, 0xff,
  0x00, 0x00, 0x00, 0x09, 0x6c, 0x00, 0x00, 0x00, 0x08, 0x00, 0x00, 0x00,
  0x40, 0x00, 0x00, 0x00, 0x04, 0x00, 0x00, 0x00, 0xe4, 0xfc, 0xff, 0xff,
  0x2c, 0x00, 0x00, 0x00, 0x20, 0x00, 0x00, 0x00, 0x14, 0x00, 0x00, 0x00,
  0x04, 0x00, 0x00, 0x00, 0x01, 0x00, 0x00, 0x00, 0x80, 0xff, 0xff, 0xff,
  0xff, 0xff, 0xff, 0xff, 0x01, 0x00, 0x00, 0x00, 0xd6, 0x5d, 0x59, 0x3c,
  0x01, 0x00, 0x00, 0x00, 0x78, 0x84, 0x58, 0x40, 0x01, 0x00, 0x00, 0x00,
  0x00, 0x00, 0x00, 0x00, 0x1e, 0x00, 0x00, 0x00, 0x73, 0x65, 0x71, 0x75,
  0x65, 0x6e, 0x74, 0x69, 0x61, 0x6c, 0x5f, 0x31, 0x2f, 0x64, 0x65, 0x6e,
  0x73, 0x65, 0x5f, 0x44, 0x65, 0x6e, 0x73, 0x65, 0x32, 0x2f, 0x52, 0x65,
  0x6c, 0x75, 0x00, 0x00, 0x02, 0x00, 0x00, 0x00, 0x01, 0x00, 0x00, 0x00,
  0x0f, 0x00, 0x00, 0x00, 0xda, 0xfc, 0xff, 0xff, 0x00, 0x00, 0x00, 0x02,
  0x60, 0x00, 0x00, 0x00, 0x03, 0x00, 0x00, 0x00, 0x2c, 0x00, 0x00, 0x00,
  0x04, 0x00, 0x00, 0x00, 0xcc, 0xfc, 0xff, 0xff, 0x18, 0x00, 0x00, 0x00,
  0x04, 0x00, 0x00, 0x00, 0x01, 0x00, 0x00, 0x00, 0x00, 0x00, 0x00, 0x00,
  0x00, 0x00, 0x00, 0x00, 0x00, 0x00, 0x00, 0x00, 0x01, 0x00, 0x00, 0x00,
  0x8e, 0x90, 0xf0, 0x37, 0x25, 0x00, 0x00, 0x00, 0x73, 0x65, 0x71, 0x75,
  0x65, 0x6e, 0x74, 0x69, 0x61, 0x6c, 0x5f, 0x31, 0x2f, 0x64, 0x65, 0x6e,
  0x73, 0x65, 0x5f, 0x44, 0x65, 0x6e, 0x73, 0x65, 0x32, 0x2f, 0x4d, 0x61,
  0x74, 0x4d, 0x75, 0x6c, 0x5f, 0x62, 0x69, 0x61, 0x73, 0x00, 0x00, 0x00,
  0x01, 0x00, 0x00, 0x00, 0x0f, 0x00, 0x00, 0x00, 0x4a, 0xfd, 0xff, 0xff,
  0x00, 0x00, 0x00, 0x09, 0x8c, 0x00, 0x00, 0x00, 0x06, 0x00, 0x00, 0x00,
  0x44, 0x00, 0x00, 0x00, 0x04, 0x00, 0x00, 0x00, 0xd4, 0xfd, 0xff, 0xff,
  0x30, 0x00, 0x00, 0x00, 0x24, 0x00, 0x00, 0x00, 0x18, 0x00, 0x00, 0x00,
  0x04, 0x00, 0x00, 0x00, 0x01, 0x00, 0x00, 0x00, 0x00, 0x00, 0x00, 0x00,
  0x00, 0x00, 0x00, 0x00, 0x00, 0x00, 0x00, 0x00, 0x01, 0x00, 0x00, 0x00,
  0xe6, 0x49, 0x76, 0x3b, 0x01, 0x00, 0x00, 0x00, 0x52, 0x5d, 0xf4, 0x3e,
  0x01, 0x00, 0x00, 0x00, 0x09, 0x15, 0xb6, 0xbe, 0x39, 0x00, 0x00, 0x00,
  0x73, 0x65, 0x71, 0x75, 0x65, 0x6e, 0x74, 0x69, 0x61, 0x6c, 0x5f, 0x31,
  0x2f, 0x64, 0x65, 0x6e, 0x73, 0x65, 0x5f, 0x44, 0x65, 0x6e, 0x73, 0x65,
  0x32, 0x2f, 0x4d, 0x61, 0x74, 0x4d, 0x75, 0x6c, 0x2f, 0x52, 0x65, 0x61,
  0x64, 0x56, 0x61, 0x72, 0x69, 0x61, 0x62, 0x6c, 0x65, 0x4f, 0x70, 0x2f,
  0x74, 0x72, 0x61, 0x6e, 0x73, 0x70, 0x6f, 0x73, 0x65, 0x00, 0x00, 0x00,
  0x02, 0x00, 0x00, 0x00, 0x0f, 0x00, 0x00, 0x00, 0x32, 0x00, 0x00, 0x00,
  0xea, 0xfd, 0xff, 0xff, 0x00, 0x00, 0x00, 0x09, 0x6c, 0x00, 0x00, 0x00,
  0x0a, 0x00, 0x00, 0x00, 0x40, 0x00, 0x00, 0x00, 0x04, 0x00, 0x00, 0x00,
  0x74, 0xfe, 0xff, 0xff, 0x2c, 0x00, 0x00, 0x00, 0x20, 0x00, 0x00, 0x00,
  0x14, 0x00, 0x00, 0x00, 0x04, 0x00, 0x00, 0x00, 0x01, 0x00, 0x00, 0x00,
  0x80, 0xff, 0xff, 0xff, 0xff, 0xff, 0xff, 0xff, 0x01, 0x00, 0x00, 0x00,
  0xe0, 0x0c, 0xfa, 0x3b, 0x01, 0x00, 0x00, 0x00, 0xd3, 0x12, 0xf9, 0x3f,
  0x01, 0x00, 0x00, 0x00, 0x00, 0x00, 0x00, 0x00, 0x1e, 0x00, 0x00, 0x00,
  0x73, 0x65, 0x71, 0x75, 0x65, 0x6e, 0x74, 0x69, 0x61, 0x6c, 0x5f, 0x31,
  0x2f, 0x64, 0x65, 0x6e, 0x73, 0x65, 0x5f, 0x44, 0x65, 0x6e, 0x73, 0x65,
  0x31, 0x2f, 0x52, 0x65, 0x6c, 0x75, 0x00, 0x00, 0x02, 0x00, 0x00, 0x00,
  0x01, 0x00, 0x00, 0x00, 0x32, 0x00, 0x00, 0x00, 0x6a, 0xfe, 0xff, 0xff,
  0x00, 0x00, 0x00, 0x02, 0x60, 0x00, 0x00, 0x00, 0x04, 0x00, 0x00, 0x00,
  0x2c, 0x00, 0x00, 0x00, 0x04, 0x00, 0x00, 0x00, 0x5c, 0xfe, 0xff, 0xff,
  0x18, 0x00, 0x00, 0x00, 0x04, 0x00, 0x00, 0x00, 0x01, 0x00, 0x00, 0x00,
  0x00, 0x00, 0x00, 0x00, 0x00, 0x00, 0x00, 0x00, 0x00, 0x00, 0x00, 0x00,
  0x01, 0x00, 0x00, 0x00, 0x9f, 0x07, 0xb8, 0x37, 0x25, 0x00, 0x00, 0x00,
  0x73, 0x65, 0x71, 0x75, 0x65, 0x6e, 0x74, 0x69, 0x61, 0x6c, 0x5f, 0x31,
  0x2f, 0x64, 0x65, 0x6e, 0x73, 0x65, 0x5f, 0x44, 0x65, 0x6e, 0x73, 0x65,
  0x31, 0x2f, 0x4d, 0x61, 0x74, 0x4d, 0x75, 0x6c, 0x5f, 0x62, 0x69, 0x61,
  0x73, 0x00, 0x00, 0x00, 0x01, 0x00, 0x00, 0x00, 0x32, 0x00, 0x00, 0x00,
  0xda, 0xfe, 0xff, 0xff, 0x00, 0x00, 0x00, 0x09, 0x88, 0x00, 0x00, 0x00,
  0x09, 0x00, 0x00, 0x00, 0x40, 0x00, 0x00, 0x00, 0x04, 0x00, 0x00, 0x00,
  0x64, 0xff, 0xff, 0xff, 0x2c, 0x00, 0x00, 0x00, 0x20, 0x00, 0x00, 0x00,
  0x14, 0x00, 0x00, 0x00, 0x04, 0x00, 0x00, 0x00, 0x01, 0x00, 0x00, 0x00,
  0x00, 0x00, 0x00, 0x00, 0x00, 0x00, 0x00, 0x00, 0x01, 0x00, 0x00, 0x00,
  0x53, 0x55, 0x37, 0x3b, 0x01, 0x00, 0x00, 0x00, 0xa8, 0xe6, 0xb5, 0x3e,
  0x01, 0x00, 0x00, 0x00, 0x5f, 0x08, 0x8e, 0xbe, 0x39, 0x00, 0x00, 0x00,
  0x73, 0x65, 0x71, 0x75, 0x65, 0x6e, 0x74, 0x69, 0x61, 0x6c, 0x5f, 0x31,
  0x2f, 0x64, 0x65, 0x6e, 0x73, 0x65, 0x5f, 0x44, 0x65, 0x6e, 0x73, 0x65,
  0x31, 0x2f, 0x4d, 0x61, 0x74, 0x4d, 0x75, 0x6c, 0x2f, 0x52, 0x65, 0x61,
  0x64, 0x56, 0x61, 0x72, 0x69, 0x61, 0x62, 0x6c, 0x65, 0x4f, 0x70, 0x2f,
  0x74, 0x72, 0x61, 0x6e, 0x73, 0x70, 0x6f, 0x73, 0x65, 0x00, 0x00, 0x00,
  0x02, 0x00, 0x00, 0x00, 0x32, 0x00, 0x00, 0x00, 0x78, 0x00, 0x00, 0x00,
  0x76, 0xff, 0xff, 0xff, 0x00, 0x00, 0x00, 0x09, 0x74, 0x00, 0x00, 0x00,
  0x07, 0x00, 0x00, 0x00, 0x50, 0x00, 0x00, 0x00, 0x10, 0x00, 0x00, 0x00,
  0x0c, 0x00, 0x14, 0x00, 0x04, 0x00, 0x08, 0x00, 0x0c, 0x00, 0x10, 0x00,
  0x0c, 0x00, 0x00, 0x00, 0x30, 0x00, 0x00, 0x00, 0x24, 0x00, 0x00, 0x00,
  0x18, 0x00, 0x00, 0x00, 0x04, 0x00, 0x00, 0x00, 0x01, 0x00, 0x00, 0x00,
  0x00, 0x00, 0x00, 0x00, 0x00, 0x00, 0x00, 0x00, 0x00, 0x00, 0x00, 0x00,
  0x01, 0x00, 0x00, 0x00, 0x7c, 0x7c, 0x00, 0x3c, 0x01, 0x00, 0x00, 0x00,
  0x00, 0xf8, 0x7f, 0x3f, 0x01, 0x00, 0x00, 0x00, 0x00, 0xf8, 0x7f, 0xbf,
  0x17, 0x00, 0x00, 0x00, 0x64, 0x65, 0x6e, 0x73, 0x65, 0x5f, 0x44, 0x65,
  0x6e, 0x73, 0x65, 0x31, 0x5f, 0x69, 0x6e, 0x70, 0x75, 0x74, 0x5f, 0x69,
  0x6e, 0x74, 0x38, 0x00, 0x02, 0x00, 0x00, 0x00, 0x01, 0x00, 0x00, 0x00,
  0x78, 0x00, 0x00, 0x00, 0x00, 0x00, 0x0e, 0x00, 0x18, 0x00, 0x08, 0x00,
  0x07, 0x00, 0x0c, 0x00, 0x10, 0x00, 0x14, 0x00, 0x0e, 0x00, 0x00, 0x00,
  0x00, 0x00, 0x00, 0x09, 0x54, 0x00, 0x00, 0x00, 0x05, 0x00, 0x00, 0x00,
  0x38, 0x00, 0x00, 0x00, 0x10, 0x00, 0x00, 0x00, 0x0c, 0x00, 0x0c, 0x00,
  0x00, 0x00, 0x00, 0x00, 0x04, 0x00, 0x08, 0x00, 0x0c, 0x00, 0x00, 0x00,
  0x18, 0x00, 0x00, 0x00, 0x04, 0x00, 0x00, 0x00, 0x01, 0x00, 0x00, 0x00,
  0x80, 0xff, 0xff, 0xff, 0xff, 0xff, 0xff, 0xff, 0x00, 0x00, 0x00, 0x00,
  0x01, 0x00, 0x00, 0x00, 0x00, 0x00, 0x80, 0x3b, 0x0d, 0x00, 0x00, 0x00,
  0x49, 0x64, 0x65, 0x6e, 0x74, 0x69, 0x74, 0x79, 0x5f, 0x69, 0x6e, 0x74,
  0x38, 0x00, 0x00, 0x00, 0x02, 0x00, 0x00, 0x00, 0x01, 0x00, 0x00, 0x00,
  0x02, 0x00, 0x00, 0x00, 0x04, 0x00, 0x00, 0x00, 0x4c, 0x00, 0x00, 0x00,
  0x30, 0x00, 0x00, 0x00, 0x1c, 0x00, 0x00, 0x00, 0x04, 0x00, 0x00, 0x00,
  0xe6, 0xff, 0xff, 0xff, 0x00, 0x00, 0x00, 0x06, 0x02, 0x00, 0x00, 0x00,
  0x00, 0x00, 0x06, 0x00, 0x06, 0x00, 0x05, 0x00, 0x06, 0x00, 0x00, 0x00,
  0x00, 0x72, 0x0a, 0x00, 0x0e, 0x00, 0x07, 0x00, 0x00, 0x00, 0x08, 0x00,
  0x0a, 0x00, 0x00, 0x00, 0x00, 0x00, 0x00, 0x19, 0x02, 0x00, 0x00, 0x00,
  0x00, 0x00, 0x0a, 0x00, 0x0c, 0x00, 0x07, 0x00, 0x00, 0x00, 0x08, 0x00,
  0x0a, 0x00, 0x00, 0x00, 0x00, 0x00, 0x00, 0x09, 0x04, 0x00, 0x00, 0x00

};